#include "magic_wand_model_data.h"

// We need to keep the data array aligned on some architectures.
#ifdef __has_attribute
#define HAVE_ATTRIBUTE(x) __has_attribute(x)
#else
#define HAVE_ATTRIBUTE(x) 0
#endif
#if HAVE_ATTRIBUTE(aligned) || (defined(__GNUC__) && !defined(__clang__))
#define DATA_ALIGN_ATTRIBUTE __attribute__((aligned(4)))
#else
#define DATA_ALIGN_ATTRIBUTE
#endif

const unsigned char g_magic_wand_model_data[] DATA_ALIGN_ATTRIBUTE = {
  // Paste the data of the char array in `src/model.cc` here
  0x08, 0x00, 0x00, 0x00, 0x54, 0x46, 0x4c, 0x33, 0x62, 0xff, 0xff, 0xff,
  0x03, 0x00, 0x00, 0x00, 0x10, 0x00, 0x00, 0x00, 0x24, 0x00, 0x00, 0x00,
  0x78, 0x00, 0x00, 0x00, 0x24, 0x00, 0x00, 0x00, 0x05, 0x00, 0x00, 0x00,
  0x78, 0x05, 0x00, 0x00, 0xb0, 0x04, 0x00, 0x00, 0xe0, 0x02, 0x00, 0x00,
  0x60, 0x02, 0x00, 0x00, 0x54, 0x01, 0x00, 0x00, 0x01, 0x00, 0x00, 0x00,
  0x78, 0x00, 0x00, 0x00, 0x13, 0x00, 0x00, 0x00, 0xd4, 0x2f, 0x00, 0x00,
  0xd0, 0x2f, 0x00, 0x00, 0xdc, 0x2e, 0x00, 0x00, 0x68, 0x2e, 0x00, 0x00,
  0xfc, 0x2d, 0x00, 0x00, 0xac, 0x11, 0x00, 0x00, 0x98, 0x10, 0x00, 0x00,
  0xbc, 0x0e, 0x00, 0x00, 0x60, 0x06, 0x00, 0x00, 0xfc, 0x05, 0x00, 0x00,
  0x78, 0x05, 0x00, 0x00, 0xa8, 0x2f, 0x00, 0x00, 0xa4, 0x2f, 0x00, 0x00,
  0xa0, 0x2f, 0x00, 0x00, 0x9c, 0x2f, 0x00, 0x00, 0x98, 0x2f, 0x00, 0x00,
  0x94, 0x2f, 0x00, 0x00, 0x90, 0x2f, 0x00, 0x00, 0x8c, 0x2f, 0x00, 0x00,
  0x0f, 0x00, 0x00, 0x00, 0x4d, 0x4c, 0x49, 0x52, 0x20, 0x43, 0x6f, 0x6e,
  0x76, 0x65, 0x72, 0x74, 0x65, 0x64, 0x2e, 0x00, 0x00, 0x00, 0x0e, 0x00,
  0x18, 0x00, 0x04, 0x00, 0x08, 0x00, 0x0c, 0x00, 0x10, 0x00, 0x14, 0x00,
  0x0e, 0x00, 0x00, 0x00, 0x14, 0x00, 0x00, 0x00, 0x5c, 0x00, 0x00, 0x00,
  0x60, 0x00, 0x00, 0x00, 0x64, 0x00, 0x00, 0x00, 0x84, 0x00, 0x00, 0x00,
  0x12, 0x00, 0x00, 0x00, 0x04, 0x2f, 0x00, 0x00, 0xa0, 0x2e, 0x00, 0x00,
  0xf8, 0x2d, 0x00, 0x00, 0x98, 0x2d, 0x00, 0x00, 0x30, 0x2d, 0x00, 0x00,
  0xdc, 0x10, 0x00, 0x00, 0xc0, 0x0f, 0x00, 0x00, 0xe4, 0x0d, 0x00, 0x00,
  0xa0, 0x05, 0x00, 0x00, 0x3c, 0x05, 0x00, 0x00, 0xb0, 0x04, 0x00, 0x00,
  0xe8, 0x03, 0x00, 0x00, 0x38, 0x03, 0x00, 0x00, 0xa4, 0x02, 0x00, 0x00,
  0x10, 0x02, 0x00, 0x00, 0x90, 0x01, 0x00, 0x00, 0xfc, 0x00, 0x00, 0x00,
  0x80, 0x00, 0x00, 0x00, 0x01, 0x00, 0x00, 0x00, 0x00, 0x00, 0x00, 0x00,
  0x01, 0x00, 0x00, 0x00, 0x11, 0x00, 0x00, 0x00, 0x08, 0x00, 0x00, 0x00,
  0x1c, 0x04, 0x00, 0x00, 0x58, 0x03, 0x00, 0x00, 0xc8, 0x02, 0x00, 0x00,
  0x24, 0x02, 0x00, 0x00, 0xac, 0x01, 0x00, 0x00, 0x10, 0x01, 0x00, 0x00,
  0x94, 0x00, 0x00, 0x00, 0x10, 0x00, 0x00, 0x00, 0x04, 0x00, 0x00, 0x00,
  0x6d, 0x61, 0x69, 0x6e, 0x00, 0x00, 0x00, 0x00, 0x8e, 0xff, 0xff, 0xff,
  0x00, 0x00, 0x00, 0x09, 0x04, 0x00, 0x00, 0x00, 0x1c, 0x00, 0x00, 0x00,
  0x10, 0x00, 0x00, 0x00, 0x04, 0x00, 0x00, 0x00, 0x4e, 0xd2, 0xff, 0xff,
  0x00, 0x00, 0x80, 0x3f, 0x01, 0x00, 0x00, 0x00, 0x11, 0x00, 0x00, 0x00,
  0x01, 0x00, 0x00, 0x00, 0x10, 0x00, 0x00, 0x00, 0xf6, 0xfb, 0xff, 0xff,
  0x00, 0x00, 0x00, 0x19, 0x01, 0x00, 0x00, 0x00, 0xce, 0xd1, 0xff, 0xff,
  0x10, 0x00, 0x00, 0x00, 0x12, 0x00, 0x00, 0x00, 0x14, 0x00, 0x00, 0x00,
  0x20, 0x00, 0x00, 0x00, 0x02, 0x00, 0x00, 0x00, 0x01, 0x00, 0x00, 0x00,
  0x03, 0x00, 0x00, 0x00, 0x08, 0x00, 0x00, 0x00, 0x49, 0x64, 0x65, 0x6e,
  0x74, 0x69, 0x74, 0x79, 0x00, 0x00, 0x00, 0x00, 0x08, 0xd2, 0xff, 0xff,
  0x00, 0x00, 0x0e, 0x00, 0x18, 0x00, 0x08, 0x00, 0x0c, 0x00, 0x10, 0x00,
  0x07, 0x00, 0x14, 0x00, 0x0e, 0x00, 0x00, 0x00, 0x00, 0x00, 0x00, 0x08,
  0x03, 0x00, 0x00, 0x00, 0x18, 0x00, 0x00, 0x00, 0x0c, 0x00, 0x00, 0x00,
  0x04, 0x00, 0x00, 0x00, 0xdc, 0xd1, 0xff, 0xff, 0x01, 0x00, 0x00, 0x00,
  0x10, 0x00, 0x00, 0x00, 0x03, 0x00, 0x00, 0x00, 0x0f, 0x00, 0x00, 0x00,
  0x05, 0x00, 0x00, 0x00, 0x02, 0x00, 0x00, 0x00, 0x46, 0xd2, 0xff, 0xff,
  0x10, 0x00, 0x00, 0x00, 0x11, 0x00, 0x00, 0x00, 0x14, 0x00, 0x00, 0x00,
  0x30, 0x00, 0x00, 0x00, 0x02, 0x00, 0x00, 0x00, 0x01, 0x00, 0x00, 0x00,
  0x03, 0x00, 0x00, 0x00, 0x1a, 0x00, 0x00, 0x00, 0x73, 0x65, 0x71, 0x75,
  0x65, 0x6e, 0x74, 0x69, 0x61, 0x6c, 0x2f, 0x64, 0x65, 0x6e, 0x73, 0x65,
  0x5f, 0x31, 0x2f, 0x42, 0x69, 0x61, 0x73, 0x41, 0x64, 0x64, 0x00, 0x00,
  0x38, 0xd2, 0xff, 0xff, 0xd6, 0xfd, 0xff, 0xff, 0x00, 0x00, 0x00, 0x08,
  0x03, 0x00, 0x00, 0x00, 0x24, 0x00, 0x00, 0x00, 0x18, 0x00, 0x00, 0x00,
  0x0c, 0x00, 0x00, 0x00, 0x00, 0x00, 0x06, 0x00, 0x08, 0x00, 0x07, 0x00,
  0x06, 0x00, 0x00, 0x00, 0x00, 0x00, 0x00, 0x01, 0x01, 0x00, 0x00, 0x00,
  0x0f, 0x00, 0x00, 0x00, 0x03, 0x00, 0x00, 0x00, 0x0e, 0x00, 0x00, 0x00,
  0x04, 0x00, 0x00, 0x00, 0x01, 0x00, 0x00, 0x00, 0xfe, 0xfc, 0xff, 0xff,
  0x00, 0x00, 0x00, 0x09, 0x01, 0x00, 0x00, 0x00, 0xd6, 0xd2, 0xff, 0xff,
  0x10, 0x00, 0x00, 0x00, 0x10, 0x00, 0x00, 0x00, 0x14, 0x00, 0x00, 0x00,
  0x2c, 0x00, 0x00, 0x00, 0x02, 0x00, 0x00, 0x00, 0x01, 0x00, 0x00, 0x00,
  0x10, 0x00, 0x00, 0x00, 0x15, 0x00, 0x00, 0x00, 0x73, 0x65, 0x71, 0x75,
  0x65, 0x6e, 0x74, 0x69, 0x61, 0x6c, 0x2f, 0x64, 0x65, 0x6e, 0x73, 0x65,
  0x2f, 0x52, 0x65, 0x6c, 0x75, 0x00, 0x00, 0x00, 0x1c, 0xd3, 0xff, 0xff,
  0x00, 0x00, 0x0a, 0x00, 0x10, 0x00, 0x04, 0x00, 0x08, 0x00, 0x0c, 0x00,
  0x0a, 0x00, 0x00, 0x00, 0x02, 0x00, 0x00, 0x00, 0x10, 0x00, 0x00, 0x00,
  0x04, 0x00, 0x00, 0x00, 0x01, 0x00, 0x00, 0x00, 0x0e, 0x00, 0x00, 0x00,
  0x02, 0x00, 0x00, 0x00, 0x0d, 0x00, 0x00, 0x00, 0x03, 0x00, 0x00, 0x00,
  0x7a, 0xfd, 0xff, 0xff, 0x00, 0x00, 0x00, 0x16, 0x01, 0x00, 0x00, 0x00,
  0x52, 0xd3, 0xff, 0xff, 0x10, 0x00, 0x00, 0x00, 0x0f, 0x00, 0x00, 0x00,
  0x14, 0x00, 0x00, 0x00, 0x30, 0x00, 0x00, 0x00, 0x02, 0x00, 0x00, 0x00,
  0x01, 0x00, 0x00, 0x00, 0x70, 0x00, 0x00, 0x00, 0x1a, 0x00, 0x00, 0x00,
  0x73, 0x65, 0x71, 0x75, 0x65, 0x6e, 0x74, 0x69, 0x61, 0x6c, 0x2f, 0x66,
  0x6c, 0x61, 0x74, 0x74, 0x65, 0x6e, 0x2f, 0x52, 0x65, 0x73, 0x68, 0x61,
  0x70, 0x65, 0x00, 0x00, 0x44, 0xd3, 0xff, 0xff, 0xe2, 0xfe, 0xff, 0xff,
  0x00, 0x00, 0x00, 0x05, 0x01, 0x00, 0x00, 0x00, 0x38, 0x00, 0x00, 0x00,
  0x2c, 0x00, 0x00, 0x00, 0x14, 0x00, 0x00, 0x00, 0x00, 0x00, 0x0e, 0x00,
  0x14, 0x00, 0x00, 0x00, 0x10, 0x00, 0x0c, 0x00, 0x08, 0x00, 0x04, 0x00,
  0x0e, 0x00, 0x00, 0x00, 0x03, 0x00, 0x00, 0x00, 0x01, 0x00, 0x00, 0x00,
  0x03, 0x00, 0x00, 0x00, 0x01, 0x00, 0x00, 0x00, 0x01, 0x00, 0x00, 0x00,
  0x0d, 0x00, 0x00, 0x00, 0x01, 0x00, 0x00, 0x00, 0x0c, 0x00, 0x00, 0x00,
  0xe2, 0xd3, 0xff, 0xff, 0x10, 0x00, 0x00, 0x00, 0x0e, 0x00, 0x00, 0x00,
  0x1c, 0x00, 0x00, 0x00, 0x40, 0x00, 0x00, 0x00, 0x04, 0x00, 0x00, 0x00,
  0x01, 0x00, 0x00, 0x00, 0x07, 0x00, 0x00, 0x00, 0x01, 0x00, 0x00, 0x00,
  0x10, 0x00, 0x00, 0x00, 0x22, 0x00, 0x00, 0x00, 0x73, 0x65, 0x71, 0x75,
  0x65, 0x6e, 0x74, 0x69, 0x61, 0x6c, 0x2f, 0x6d, 0x61, 0x78, 0x5f, 0x70,
  0x6f, 0x6f, 0x6c, 0x69, 0x6e, 0x67, 0x32, 0x64, 0x5f, 0x31, 0x2f, 0x4d,
  0x61, 0x78, 0x50, 0x6f, 0x6f, 0x6c, 0x00, 0x00, 0xe4, 0xd3, 0xff, 0xff,
  0xc2, 0xfe, 0xff, 0xff, 0x00, 0x00, 0x00, 0x01, 0x24, 0x00, 0x00, 0x00,
  0x18, 0x00, 0x00, 0x00, 0x04, 0x00, 0x00, 0x00, 0xb4, 0xfe, 0xff, 0xff,
  0x01, 0x00, 0x00, 0x00, 0x01, 0x00, 0x00, 0x00, 0x00, 0x00, 0x00, 0x01,
  0x01, 0x00, 0x00, 0x00, 0x0c, 0x00, 0x00, 0x00, 0x03, 0x00, 0x00, 0x00,
  0x0b, 0x00, 0x00, 0x00, 0x07, 0x00, 0x00, 0x00, 0x09, 0x00, 0x00, 0x00,
  0x72, 0xd4, 0xff, 0xff, 0x10, 0x00, 0x00, 0x00, 0x0d, 0x00, 0x00, 0x00,
  0x1c, 0x00, 0x00, 0x00, 0x2c, 0x00, 0x00, 0x00, 0x04, 0x00, 0x00, 0x00,
  0x01, 0x00, 0x00, 0x00, 0x15, 0x00, 0x00, 0x00, 0x01, 0x00, 0x00, 0x00,
  0x10, 0x00, 0x00, 0x00, 0x0c, 0x00, 0x00, 0x00, 0x74, 0x66, 0x6c, 0x2e,
  0x63, 0x6f, 0x6e, 0x76, 0x5f, 0x32, 0x64, 0x31, 0x00, 0x00, 0x00, 0x00,
  0xb8, 0xd4, 0xff, 0xff, 0x00, 0x00, 0x0e, 0x00, 0x1a, 0x00, 0x08, 0x00,
  0x0c, 0x00, 0x10, 0x00, 0x07, 0x00, 0x14, 0x00, 0x0e, 0x00, 0x00, 0x00,
  0x00, 0x00, 0x00, 0x05, 0x01, 0x00, 0x00, 0x00, 0x3c, 0x00, 0x00, 0x00,
  0x30, 0x00, 0x00, 0x00, 0x14, 0x00, 0x00, 0x00, 0x00, 0x00, 0x0e, 0x00,
  0x18, 0x00, 0x17, 0x00, 0x10, 0x00, 0x0c, 0x00, 0x08, 0x00, 0x04, 0x00,
  0x0e, 0x00, 0x00, 0x00, 0x03, 0x00, 0x00, 0x00, 0x03, 0x00, 0x00, 0x00,
  0x03, 0x00, 0x00, 0x00, 0x03, 0x00, 0x00, 0x00, 0x00, 0x00, 0x00, 0x01,
  0x01, 0x00, 0x00, 0x00, 0x0b, 0x00, 0x00, 0x00, 0x01, 0x00, 0x00, 0x00,
  0x0a, 0x00, 0x00, 0x00, 0x46, 0xff, 0xff, 0xff, 0x00, 0x00, 0x00, 0x11,
  0x01, 0x00, 0x00, 0x00, 0x1e, 0xd5, 0xff, 0xff, 0x10, 0x00, 0x00, 0x00,
  0x0c, 0x00, 0x00, 0x00, 0x1c, 0x00, 0x00, 0x00, 0x40, 0x00, 0x00, 0x00,
  0x04, 0x00, 0x00, 0x00, 0x01, 0x00, 0x00, 0x00, 0x15, 0x00, 0x00, 0x00,
  0x01, 0x00, 0x00, 0x00, 0x08, 0x00, 0x00, 0x00, 0x20, 0x00, 0x00, 0x00,
  0x73, 0x65, 0x71, 0x75, 0x65, 0x6e, 0x74, 0x69, 0x61, 0x6c, 0x2f, 0x6d,
  0x61, 0x78, 0x5f, 0x70, 0x6f, 0x6f, 0x6c, 0x69, 0x6e, 0x67, 0x32, 0x64,
  0x2f, 0x4d, 0x61, 0x78, 0x50, 0x6f, 0x6f, 0x6c, 0x00, 0x00, 0x00, 0x00,
  0x78, 0xd5, 0xff, 0xff, 0x00, 0x00, 0x0e, 0x00, 0x14, 0x00, 0x00, 0x00,
  0x08, 0x00, 0x0c, 0x00, 0x07, 0x00, 0x10, 0x00, 0x0e, 0x00, 0x00, 0x00,
  0x00, 0x00, 0x00, 0x01, 0x30, 0x00, 0x00, 0x00, 0x24, 0x00, 0x00, 0x00,
  0x10, 0x00, 0x00, 0x00, 0x0c, 0x00, 0x10, 0x00, 0x00, 0x00, 0x04, 0x00,
  0x08, 0x00, 0x0f, 0x00, 0x0c, 0x00, 0x00, 0x00, 0x01, 0x00, 0x00, 0x00,
  0x01, 0x00, 0x00, 0x00, 0x00, 0x00, 0x00, 0x01, 0x01, 0x00, 0x00, 0x00,
  0x0a, 0x00, 0x00, 0x00, 0x03, 0x00, 0x00, 0x00, 0x00, 0x00, 0x00, 0x00,
  0x06, 0x00, 0x00, 0x00, 0x08, 0x00, 0x00, 0x00, 0x00, 0x00, 0x0a, 0x00,
  0x0c, 0x00, 0x07, 0x00, 0x00, 0x00, 0x08, 0x00, 0x0a, 0x00, 0x00, 0x00,
  0x00, 0x00, 0x00, 0x03, 0x01, 0x00, 0x00, 0x00, 0xe2, 0xd5, 0xff, 0xff,
  0x10, 0x00, 0x00, 0x00, 0x0b, 0x00, 0x00, 0x00, 0x1c, 0x00, 0x00, 0x00,
  0x28, 0x00, 0x00, 0x00, 0x04, 0x00, 0x00, 0x00, 0x01, 0x00, 0x00, 0x00,
  0x40, 0x00, 0x00, 0x00, 0x03, 0x00, 0x00, 0x00, 0x08, 0x00, 0x00, 0x00,
  0x0b, 0x00, 0x00, 0x00, 0x74, 0x66, 0x6c, 0x2e, 0x63, 0x6f, 0x6e, 0x76,
  0x5f, 0x32, 0x64, 0x00, 0xcc, 0xd5, 0xff, 0xff, 0xc2, 0xd6, 0xff, 0xff,
  0x04, 0x00, 0x00, 0x00, 0x40, 0x00, 0x00, 0x00, 0xa7, 0x1d, 0x37, 0xbf,
  0x4e, 0x24, 0x2c, 0x40, 0x2e, 0x98, 0x2c, 0x3e, 0xff, 0x2c, 0xff, 0xbd,
  0x21, 0xaa, 0xfb, 0xbf, 0xe8, 0x4a, 0x44, 0xbf, 0xe0, 0xfe, 0x89, 0xbf,
  0x16, 0x94, 0xed, 0xbe, 0xb9, 0x99, 0xc4, 0xbf, 0x43, 0x62, 0xfd, 0xbf,
  0x41, 0x42, 0x04, 0xbd, 0x53, 0xcb, 0x46, 0xbb, 0x76, 0xd6, 0x5f, 0x3e,
  0x04, 0xae, 0x06, 0xc0, 0x3f, 0x56, 0x24, 0xc0, 0x87, 0xa5, 0x9f, 0xbf,
  0x6a, 0xd6, 0xff, 0xff, 0x10, 0x00, 0x00, 0x00, 0x0a, 0x00, 0x00, 0x00,
  0x10, 0x00, 0x00, 0x00, 0x20, 0x00, 0x00, 0x00, 0x01, 0x00, 0x00, 0x00,
  0x10, 0x00, 0x00, 0x00, 0x0d, 0x00, 0x00, 0x00, 0x73, 0x74, 0x64, 0x2e,
  0x63, 0x6f, 0x6e, 0x73, 0x74, 0x61, 0x6e, 0x74, 0x31, 0x00, 0x00, 0x00,
  0x4c, 0xd6, 0xff, 0xff, 0x42, 0xd7, 0xff, 0xff, 0x04, 0x00, 0x00, 0x00,
  0x20, 0x00, 0x00, 0x00, 0xa2, 0x76, 0x19, 0xc0, 0x31, 0x21, 0x8b, 0xbe,
  0x80, 0x60, 0x3d, 0xbf, 0x36, 0xd6, 0xfc, 0xbf, 0xe7, 0x62, 0xe9, 0xbd,
  0xe8, 0xe4, 0x47, 0xbf, 0xb2, 0xbc, 0xfd, 0xbf, 0xb7, 0x86, 0x80, 0xbc,
  0xca, 0xd6, 0xff, 0xff, 0x10, 0x00, 0x00, 0x00, 0x09, 0x00, 0x00, 0x00,
  0x10, 0x00, 0x00, 0x00, 0x20, 0x00, 0x00, 0x00, 0x01, 0x00, 0x00, 0x00,
  0x08, 0x00, 0x00, 0x00, 0x0c, 0x00, 0x00, 0x00, 0x73, 0x74, 0x64, 0x2e,
  0x63, 0x6f, 0x6e, 0x73, 0x74, 0x61, 0x6e, 0x74, 0x00, 0x00, 0x00, 0x00,
  0xac, 0xd6, 0xff, 0xff, 0xa2, 0xd7, 0xff, 0xff, 0x04, 0x00, 0x00, 0x00,
  0x00, 0x08, 0x00, 0x00, 0xc1, 0x20, 0x00, 0x3e, 0x77, 0x25, 0x50, 0xbe,
  0xef, 0x67, 0x45, 0x3c, 0x0e, 0x3e, 0x15, 0x3d, 0x5a, 0xf4, 0xc2, 0x3d,
  0xe3, 0xcc, 0xcf, 0xbd, 0x92, 0x7a, 0x91, 0xbe, 0x76, 0xa9, 0xb1, 0x3c,
  0x92, 0x17, 0x56, 0xbd, 0x69, 0x92, 0x21, 0xbf, 0xbf, 0x50, 0x3f, 0x3d,
  0x2f, 0xec, 0xdd, 0x3d, 0xb9, 0x2e, 0x11, 0xbe, 0x98, 0x2e, 0xa1, 0x3a,
  0x78, 0xb2, 0xee, 0xbe, 0x17, 0x21, 0x06, 0xbe, 0xc3, 0x4a, 0x18, 0xbc,
  0x7d, 0xf0, 0xa0, 0xbe, 0x34, 0x58, 0xc6, 0xbd, 0x78, 0xae, 0xfd, 0x3d,
  0xfc, 0xb3, 0x22, 0x3c, 0xce, 0xe5, 0x29, 0x3d, 0xae, 0xfd, 0x96, 0xbe,
  0x57, 0xca, 0xa6, 0xbc, 0x3d, 0x45, 0x97, 0xbe, 0x8f, 0x41, 0xe1, 0xbe,
  0x32, 0x56, 0xf5, 0xbc, 0xdc, 0x44, 0xc6, 0x3d, 0x2a, 0xff, 0xb6, 0xbc,
  0x22, 0x8d, 0x6a, 0x3e, 0x27, 0x3e, 0xd8, 0x3e, 0x29, 0xab, 0x7d, 0xbe,
  0x11, 0x97, 0x3e, 0xbe, 0x97, 0xb9, 0x1a, 0xbe, 0x2c, 0x54, 0x1c, 0xbe,
  0xa2, 0xb5, 0x8c, 0xbe, 0xff, 0xf1, 0xac, 0xbd, 0x7b, 0x98, 0xa6, 0xbc,
  0x61, 0x41, 0x9f, 0xbd, 0x1c, 0x3a, 0xcb, 0xbd, 0x97, 0x81, 0x33, 0x3d,
  0xdc, 0xd2, 0x4c, 0x3d, 0xfb, 0x2d, 0xd8, 0xbd, 0x8f, 0x56, 0x50, 0xbe,
  0xb6, 0x99, 0x0d, 0xbd, 0x11, 0x10, 0x0a, 0x3e, 0x23, 0x4c, 0x82, 0x3e,
  0x83, 0x4d, 0x26, 0xbc, 0x0c, 0x6f, 0xa6, 0xbc, 0xde, 0x1c, 0xaf, 0x3d,
  0x5d, 0xb7, 0x11, 0xbe, 0x2e, 0xa1, 0x07, 0xbe, 0x9e, 0xd0, 0x8b, 0xbe,
  0x4b, 0xc9, 0x61, 0xbe, 0x01, 0x23, 0x95, 0xbe, 0x80, 0x53, 0xb1, 0x3c,
  0x01, 0x6d, 0x89, 0xbc, 0xfa, 0x5a, 0xab, 0x3d, 0xd5, 0xd0, 0x90, 0x3e,
  0x14, 0xef, 0x0b, 0xbe, 0xa8, 0xee, 0x05, 0x3e, 0xb6, 0x9c, 0x5a, 0xbe,
  0x79, 0x34, 0x3b, 0xbc, 0x50, 0xed, 0x9a, 0x3d, 0xe7, 0x81, 0x8c, 0xbc,
  0x08, 0x1f, 0x22, 0xbe, 0x68, 0x5c, 0x8f, 0xbd, 0x31, 0x95, 0x2a, 0xbe,
  0x5e, 0x7f, 0x60, 0xbd, 0x55, 0xbb, 0xa7, 0xbe, 0x5a, 0xfc, 0xc4, 0xbe,
  0xc1, 0x2f, 0xbe, 0xbe, 0x7b, 0x56, 0x6a, 0x3d, 0xea, 0xff, 0x47, 0xbe,
  0xd0, 0x90, 0x2d, 0x3c, 0x85, 0xc7, 0x74, 0xbd, 0x7a, 0x95, 0x59, 0xbe,
  0xe6, 0x1d, 0x11, 0x3e, 0x58, 0xfd, 0xe9, 0x3e, 0x3f, 0x12, 0x78, 0xbe,
  0xfc, 0x2c, 0xc9, 0x3b, 0x86, 0xda, 0x85, 0xbe, 0x3b, 0xaf, 0x7b, 0x3e,
  0x61, 0xe3, 0x4a, 0x3d, 0x5c, 0x38, 0x31, 0x3d, 0x2a, 0x49, 0x10, 0xbe,
  0xa5, 0x5a, 0xd5, 0x3b, 0x28, 0xc0, 0x9f, 0xbe, 0x22, 0x0d, 0xef, 0x3d,
  0xa1, 0x40, 0x12, 0xbe, 0x87, 0x43, 0x05, 0x3d, 0xbf, 0x60, 0x65, 0x3c,
  0xcf, 0xa8, 0x24, 0x3a, 0xb8, 0x81, 0xd2, 0x3d, 0x76, 0xd0, 0x09, 0x3d,
  0x38, 0x64, 0x33, 0xbe, 0xed, 0x7c, 0x61, 0x3e, 0x1c, 0x56, 0x53, 0xbd,
  0x30, 0xd5, 0xa0, 0xbe, 0x37, 0xcc, 0x0e, 0xbe, 0x28, 0xcb, 0xb2, 0xbd,
  0xd8, 0x70, 0x1e, 0x3e, 0x1b, 0x6a, 0x2f, 0x3d, 0xe5, 0x3f, 0x1a, 0x3d,
  0xd6, 0xa2, 0x32, 0xbe, 0x0b, 0xd7, 0x08, 0xbe, 0x46, 0x58, 0x4d, 0xbe,
  0x0c, 0x48, 0x0e, 0xbc, 0xdb, 0xa5, 0xbb, 0x3c, 0x51, 0x32, 0x01, 0xbc,
  0x9a, 0x75, 0xe9, 0xbd, 0x4a, 0x25, 0xd9, 0x3c, 0xca, 0xbb, 0xa1, 0xbd,
  0xaa, 0xd6, 0x42, 0x3d, 0x77, 0x4d, 0x83, 0xbe, 0x1b, 0x64, 0x0c, 0xbd,
  0xfa, 0xaf, 0x1a, 0x3e, 0xc0, 0xde, 0xe5, 0x3d, 0xd5, 0x82, 0xb3, 0x3c,
  0xcf, 0x91, 0xb2, 0x3d, 0x25, 0x8e, 0x2d, 0x3e, 0x0a, 0x21, 0x30, 0x3e,
  0xf2, 0x38, 0xd3, 0xbd, 0x03, 0x50, 0x6d, 0xbe, 0x76, 0xc8, 0x7f, 0xbe,
  0xf3, 0xbb, 0xbe, 0x3d, 0x5a, 0x61, 0x49, 0x3b, 0x9f, 0x05, 0x45, 0x3e,
  0x28, 0x3e, 0xf1, 0x3e, 0xc9, 0x07, 0x1f, 0x3e, 0x42, 0x70, 0xa4, 0x3d,
  0xf9, 0x63, 0xcb, 0x3e, 0x7c, 0xc7, 0x0e, 0x3e, 0x1f, 0xc8, 0x20, 0xbe,
  0x17, 0x15, 0xbe, 0xbd, 0xfa, 0x59, 0x8a, 0x3e, 0xb8, 0xe0, 0x06, 0xbe,
  0x94, 0x07, 0x26, 0xbd, 0x45, 0x85, 0x33, 0xbe, 0xb2, 0x90, 0x0b, 0x3e,
  0x19, 0x22, 0x02, 0xbf, 0x38, 0xe4, 0xca, 0x3d, 0xbe, 0x08, 0x19, 0xbd,
  0x67, 0xfb, 0x63, 0xbd, 0xcd, 0x12, 0x31, 0xbe, 0x6e, 0x06, 0x5f, 0xbe,
  0x21, 0x46, 0xc6, 0xbd, 0xcf, 0x68, 0xd9, 0x3d, 0x20, 0x9c, 0x83, 0xbe,
  0xed, 0xd4, 0x77, 0x3e, 0x56, 0x76, 0xe0, 0x3d, 0x4a, 0x97, 0x25, 0xbe,
  0x88, 0x98, 0x34, 0xbe, 0x8f, 0xa0, 0xe1, 0xbe, 0x28, 0x08, 0x5e, 0xbd,
  0x69, 0x92, 0x3b, 0xbf, 0x62, 0xb6, 0x08, 0xbd, 0x7d, 0x3e, 0x9e, 0xbe,
  0x9c, 0xc7, 0xa7, 0xbe, 0x27, 0xa6, 0x8d, 0xbe, 0x92, 0x44, 0x5c, 0xbe,
  0x92, 0x1e, 0x7d, 0x3e, 0x6d, 0xfd, 0xa3, 0xbe, 0xec, 0x2f, 0xeb, 0x3e,
  0x59, 0x63, 0x9a, 0x3e, 0xfe, 0x69, 0x9c, 0xbd, 0x70, 0x4d, 0x04, 0x3e,
  0x9d, 0xe1, 0x70, 0x3e, 0x36, 0x40, 0x16, 0x3e, 0x6e, 0x0b, 0xc0, 0x3d,
  0x05, 0xc7, 0x5d, 0xbe, 0x0d, 0xcd, 0x9a, 0x3c, 0x47, 0xe1, 0xc9, 0xbd,
  0xf9, 0x95, 0x9e, 0xbe, 0xa4, 0x21, 0xcb, 0x3c, 0xfe, 0x31, 0x63, 0xbd,
  0x07, 0xa1, 0x51, 0x3c, 0x10, 0xdf, 0x14, 0x3d, 0xb5, 0xa0, 0x37, 0xbe,
  0xfb, 0x82, 0x83, 0x3e, 0x6d, 0x0a, 0x48, 0xbe, 0xff, 0xe0, 0x2d, 0xbe,
  0x97, 0xab, 0x3d, 0x3e, 0xce, 0x82, 0xae, 0xbb, 0x7d, 0xd3, 0x59, 0xbe,
  0x8b, 0x1b, 0xb6, 0xbc, 0x95, 0xce, 0x95, 0xbe, 0x3e, 0xc4, 0x66, 0x3d,
  0xb7, 0xb3, 0x22, 0xbd, 0x58, 0x4b, 0x28, 0x3e, 0x6f, 0x9a, 0x70, 0x3e,
  0xef, 0xde, 0x1e, 0xbd, 0x88, 0x1c, 0xbd, 0xbd, 0xb7, 0xcd, 0x1c, 0xbe,
  0xb5, 0x2e, 0xac, 0xbd, 0xf4, 0xa8, 0xbe, 0xbe, 0xf4, 0xf0, 0x5e, 0x3f,
  0x75, 0xf8, 0xfb, 0xbe, 0x84, 0xf2, 0xf3, 0xbd, 0x3d, 0x12, 0xe6, 0xbd,
  0x84, 0x8c, 0x04, 0x3e, 0x56, 0xcc, 0x55, 0xbb, 0x8d, 0xa6, 0xab, 0x3c,
  0x56, 0x0c, 0x1f, 0x3e, 0x51, 0xd2, 0x83, 0xbe, 0x50, 0x20, 0x44, 0xbe,
  0x8e, 0xf8, 0x8a, 0x3d, 0x05, 0x24, 0xd5, 0xbc, 0x7d, 0x40, 0x5c, 0xbc,
  0xbd, 0x17, 0x2a, 0x3d, 0x9a, 0x87, 0x8d, 0xbd, 0xd2, 0xac, 0x16, 0x3e,
  0x34, 0xc6, 0x9e, 0xbe, 0x1d, 0xae, 0x12, 0x3e, 0x8d, 0x6a, 0xbe, 0x3d,
  0x9e, 0xf4, 0x20, 0x3d, 0xca, 0xa2, 0x65, 0xbc, 0x89, 0xa0, 0x2e, 0xbb,
  0xd5, 0xea, 0x28, 0xbd, 0x07, 0xc4, 0xe0, 0x3c, 0x8f, 0xda, 0x05, 0xbe,
  0xac, 0x25, 0x0d, 0x3e, 0xb8, 0x82, 0x92, 0x3c, 0x02, 0x44, 0x90, 0x3b,
  0xa9, 0xc2, 0x22, 0xbc, 0xad, 0x49, 0xc0, 0xbe, 0xd3, 0x6f, 0x06, 0xbe,
  0x52, 0x74, 0x3f, 0xbe, 0x16, 0xf1, 0x68, 0x3e, 0x58, 0xd1, 0xce, 0xbd,
  0x41, 0xdc, 0x90, 0x3d, 0x16, 0x68, 0x69, 0xbe, 0x1a, 0xa5, 0x8d, 0xbc,
  0x0a, 0xca, 0x6e, 0xbe, 0xfa, 0x13, 0x02, 0xbe, 0xa6, 0x22, 0x79, 0xbd,
  0x02, 0x5b, 0x32, 0x3d, 0x9e, 0x59, 0x27, 0xbc, 0xb5, 0xe2, 0xd3, 0xba,
  0x90, 0xd4, 0x8a, 0xbe, 0xdf, 0x2e, 0x46, 0xbb, 0x41, 0xdd, 0xe3, 0xbd,
  0xe0, 0x91, 0x15, 0x3f, 0x7b, 0x40, 0xa0, 0x3d, 0x05, 0x9d, 0xb7, 0xbd,
  0x95, 0xe5, 0xb8, 0xbc, 0x9f, 0x15, 0x49, 0x3e, 0x62, 0xd4, 0x6e, 0xbe,
  0x90, 0x05, 0xec, 0xbd, 0x27, 0x58, 0x04, 0x3e, 0x44, 0x03, 0x99, 0xbd,
  0x7a, 0x7d, 0x45, 0xbd, 0x54, 0xbb, 0x93, 0x3d, 0x9b, 0x86, 0x64, 0xbd,
  0x5d, 0x02, 0x54, 0x3e, 0x9a, 0xdb, 0x2f, 0xbe, 0xcf, 0x8f, 0x2a, 0xbd,
  0x0d, 0x02, 0x1f, 0xbf, 0xf3, 0x65, 0x2f, 0xbe, 0x28, 0xe8, 0x3d, 0xbd,
  0xc3, 0x41, 0x8b, 0xbe, 0x3e, 0xf9, 0x61, 0xbc, 0xf7, 0x2a, 0x02, 0xbe,
  0x77, 0x7a, 0x50, 0xbe, 0x24, 0xb7, 0x97, 0xbe, 0x4e, 0xd5, 0x4d, 0xbf,
  0xbf, 0xad, 0xff, 0x3c, 0xcf, 0xd7, 0x2b, 0x3e, 0x75, 0x5f, 0x35, 0xbe,
  0x95, 0xfa, 0x75, 0x3d, 0x5b, 0x1a, 0x76, 0x3d, 0xb1, 0x68, 0xcf, 0xbe,
  0x4e, 0x83, 0x60, 0xbe, 0x9f, 0xf9, 0x43, 0xbe, 0x83, 0x76, 0x36, 0x3d,
  0x1d, 0x5f, 0x1f, 0xbd, 0xdc, 0x5b, 0x26, 0x3e, 0x0e, 0x54, 0xc1, 0x3d,
  0xa2, 0xc3, 0x07, 0x3f, 0xdb, 0x4e, 0xf6, 0xbe, 0x29, 0x89, 0x71, 0xbd,
  0x8f, 0x7f, 0x2e, 0xbe, 0x21, 0xdf, 0x2c, 0xbd, 0x63, 0xc6, 0x22, 0xbe,
  0x6f, 0x77, 0x8b, 0x3e, 0x07, 0x5d, 0xba, 0xbe, 0x49, 0xcb, 0x33, 0x3d,
  0x73, 0xfc, 0x02, 0xbe, 0xc2, 0x97, 0x0a, 0x3e, 0xba, 0xff, 0xb6, 0xbc,
  0xeb, 0x92, 0xcf, 0xbd, 0x2e, 0xfd, 0x65, 0xbd, 0x73, 0xa4, 0x87, 0xbe,
  0x39, 0x30, 0xc1, 0xbd, 0x84, 0x14, 0x68, 0xbe, 0xa0, 0xde, 0xa6, 0xbd,
  0xbf, 0x78, 0x61, 0x3c, 0xb8, 0x9a, 0xe9, 0xbd, 0x23, 0xbc, 0x35, 0xbd,
  0xeb, 0x05, 0xb0, 0x3e, 0x13, 0xf0, 0x25, 0xbe, 0x11, 0x8e, 0x55, 0xbc,
  0x53, 0xef, 0xb9, 0x3c, 0x0b, 0xe1, 0x22, 0xbc, 0x02, 0x31, 0x83, 0xbc,
  0x8a, 0xbd, 0xe4, 0xbc, 0xc0, 0x69, 0x16, 0xbc, 0x6e, 0xfe, 0xc3, 0x3c,
  0xf1, 0x81, 0x1d, 0x3c, 0xfa, 0xef, 0x76, 0x3e, 0x0d, 0x7b, 0x3b, 0x3f,
  0x2f, 0x8f, 0x07, 0xbe, 0xfd, 0x70, 0xe6, 0xbd, 0x28, 0x6b, 0xb9, 0xbd,
  0x16, 0x27, 0x40, 0x3d, 0xcc, 0xbb, 0x0c, 0xbe, 0x39, 0xf8, 0xf6, 0xbb,
  0xca, 0x4a, 0xf2, 0xbd, 0xf6, 0x56, 0x18, 0x3d, 0xe0, 0xd2, 0xea, 0xbd,
  0x13, 0x78, 0x77, 0xbe, 0x44, 0xa0, 0x81, 0x3e, 0x76, 0x51, 0x7f, 0xbe,
  0xe0, 0xcb, 0x65, 0x3e, 0xeb, 0x20, 0xb7, 0x3e, 0x95, 0xc7, 0x93, 0xbe,
  0xbe, 0x89, 0xf0, 0x3d, 0xfd, 0xde, 0x03, 0xbe, 0x06, 0xd9, 0x7b, 0xbe,
  0xd1, 0xeb, 0x1c, 0x3e, 0xbc, 0x02, 0x85, 0xbe, 0x60, 0x14, 0x42, 0x3e,
  0x16, 0x72, 0x18, 0x3e, 0xd7, 0x2a, 0x05, 0x3d, 0x88, 0x81, 0x81, 0x3d,
  0xa2, 0x46, 0x0f, 0x3c, 0x5e, 0x75, 0xe4, 0xbe, 0x90, 0x5b, 0xd1, 0x3e,
  0x16, 0xa3, 0x9e, 0xbe, 0x63, 0x2c, 0x5f, 0x3d, 0x60, 0x85, 0xfa, 0x3c,
  0xd0, 0x08, 0xe0, 0x3d, 0xc9, 0x4b, 0x06, 0x3e, 0x3f, 0x37, 0xb4, 0x3d,
  0x05, 0xbf, 0x94, 0xbe, 0xdb, 0xa2, 0x52, 0xbc, 0x1e, 0xaa, 0x56, 0xbe,
  0x73, 0x5d, 0x01, 0x3e, 0x97, 0x6c, 0x74, 0x3e, 0x50, 0x62, 0x75, 0xbd,
  0x61, 0xf3, 0xc9, 0x3c, 0xa4, 0x97, 0x8c, 0xbd, 0xe0, 0x80, 0x6f, 0xbe,
  0x2e, 0xae, 0x27, 0xbe, 0x12, 0x0c, 0xda, 0xbd, 0x6b, 0xa3, 0xd7, 0xbd,
  0x2b, 0x97, 0xf9, 0xbd, 0x15, 0x38, 0x4d, 0xbe, 0xbb, 0xc8, 0x70, 0xbe,
  0x01, 0x91, 0x24, 0xbe, 0xd6, 0x4c, 0x86, 0xbe, 0xf6, 0xc3, 0x77, 0x3d,
  0x47, 0x62, 0x58, 0xbe, 0x91, 0xe6, 0x8d, 0xbe, 0x83, 0x20, 0xb9, 0x3d,
  0x80, 0x37, 0xdb, 0x3d, 0xe9, 0xde, 0x97, 0x3e, 0x71, 0x3f, 0x59, 0x3e,
  0x45, 0x65, 0xb6, 0xbc, 0xff, 0x7c, 0x00, 0x3e, 0x8f, 0xf3, 0x20, 0xbd,
  0x17, 0x16, 0x0c, 0xbd, 0x44, 0x52, 0xb8, 0xbe, 0xd3, 0xe6, 0xe1, 0xbd,
  0x54, 0x1b, 0x5e, 0xbe, 0xfc, 0x9f, 0x2c, 0x3d, 0x89, 0x60, 0x72, 0x3d,
  0x2e, 0x2d, 0x91, 0xbd, 0xf7, 0x9b, 0x31, 0xbe, 0x1b, 0xdb, 0xf1, 0xbc,
  0x92, 0x28, 0xc2, 0xbd, 0x22, 0xb2, 0x24, 0x3e, 0xab, 0x4d, 0x86, 0x3c,
  0x33, 0x2b, 0x07, 0x3e, 0xa5, 0x12, 0x92, 0xbd, 0x6b, 0xae, 0x47, 0x3d,
  0xcd, 0xfd, 0x91, 0x3e, 0x06, 0x72, 0xe3, 0xbd, 0x30, 0xdc, 0x5c, 0x3e,
  0xe7, 0x9a, 0x15, 0xbe, 0xce, 0x38, 0x46, 0xbc, 0xfb, 0x28, 0x31, 0x3d,
  0x1e, 0x76, 0x4c, 0xbd, 0xcb, 0xa8, 0x8b, 0x3d, 0x31, 0x7d, 0x34, 0x3d,
  0x2b, 0xa7, 0x40, 0xbd, 0xa6, 0xc4, 0x32, 0xbe, 0xd4, 0x31, 0xa7, 0x3d,
  0x59, 0x27, 0x58, 0x3c, 0xae, 0x37, 0x44, 0x3e, 0xd4, 0x87, 0x09, 0xbe,
  0x2e, 0x59, 0x7f, 0x3c, 0x0a, 0x8b, 0x64, 0x3d, 0xf4, 0xb8, 0x0a, 0x3d,
  0x41, 0x5b, 0xba, 0x3d, 0x62, 0x7b, 0x8c, 0xbc, 0xe5, 0x10, 0x8e, 0xbd,
  0x18, 0x78, 0xf7, 0x3d, 0x08, 0xa7, 0x01, 0xbe, 0xdd, 0x50, 0x9f, 0xbc,
  0x86, 0xa7, 0x8c, 0xbd, 0x55, 0x47, 0x35, 0xbd, 0x88, 0xe0, 0x99, 0xbc,
  0x3f, 0xa9, 0x0b, 0xbd, 0x87, 0xb8, 0x0f, 0xbe, 0xe7, 0xb8, 0x3e, 0xbd,
  0x51, 0x1a, 0x9a, 0x3d, 0x57, 0xfe, 0x07, 0x3d, 0x4e, 0x93, 0x44, 0xbd,
  0xff, 0xe1, 0x49, 0xbf, 0x8b, 0xc8, 0x93, 0x3e, 0x3f, 0x3e, 0x66, 0xbf,
  0xbd, 0xaa, 0x37, 0xbd, 0x1d, 0xc7, 0x78, 0xbd, 0xe0, 0x1a, 0x43, 0x3d,
  0x7a, 0xf7, 0xb0, 0xbd, 0xf2, 0xd0, 0x2c, 0xbe, 0x6a, 0x37, 0x68, 0x3e,
  0xc1, 0x26, 0x10, 0x3f, 0xeb, 0x69, 0x0c, 0xbe, 0xa9, 0x3e, 0x46, 0x3c,
  0xfa, 0x7e, 0x9c, 0xbc, 0x40, 0x41, 0x04, 0xbe, 0x26, 0xac, 0x30, 0xbd,
  0x88, 0xe2, 0xf7, 0xbd, 0xc8, 0x72, 0xea, 0x3d, 0x82, 0x51, 0x8a, 0xbe,
  0x04, 0xa4, 0x66, 0x3e, 0xd5, 0xe1, 0xc7, 0xbc, 0xce, 0x69, 0x60, 0x3c,
  0x79, 0x2d, 0x9b, 0x3b, 0x44, 0xd1, 0xb4, 0xbd, 0x74, 0x5e, 0x2f, 0xbd,
  0x62, 0x97, 0x92, 0xbe, 0x5a, 0x33, 0x08, 0xbe, 0xea, 0x89, 0x3e, 0xbc,
  0x49, 0x44, 0x91, 0xbe, 0x38, 0x0a, 0x8d, 0xbd, 0xb7, 0xe1, 0xb0, 0xbd,
  0x12, 0xe2, 0x4e, 0xbe, 0xe9, 0x40, 0xc9, 0xbc, 0x50, 0xf1, 0xf6, 0x3e,
  0x1e, 0x82, 0xa9, 0xbe, 0xa8, 0xd8, 0xc8, 0x3d, 0x62, 0xf1, 0x84, 0x3d,
  0x78, 0x5c, 0x30, 0x3d, 0x88, 0xb2, 0x11, 0xbf, 0xdf, 0x7f, 0xd3, 0xbe,
  0x36, 0xfd, 0x78, 0x3d, 0x3b, 0xdc, 0x78, 0x3d, 0xdc, 0xb9, 0x6d, 0x3d,
  0xe6, 0xe3, 0xc7, 0x3d, 0xa8, 0x3c, 0x45, 0x3d, 0x79, 0x1a, 0xa7, 0xbe,
  0x42, 0xc4, 0x69, 0xbe, 0xc1, 0x3d, 0x83, 0xbe, 0x8e, 0x97, 0x55, 0x3c,
  0x05, 0xbf, 0x11, 0xbf, 0xc9, 0x6b, 0x22, 0x3e, 0xd9, 0xe1, 0x9d, 0xbe,
  0x16, 0x75, 0x2f, 0x3d, 0x36, 0x43, 0xed, 0xbe, 0xaa, 0x94, 0x8f, 0x3e,
  0x11, 0x26, 0x9a, 0xbd, 0x2a, 0xf6, 0x2f, 0xbd, 0x58, 0x84, 0x06, 0xbe,
  0xf0, 0xf6, 0xed, 0x3d, 0x99, 0xcc, 0xa7, 0xbe, 0x5a, 0x48, 0x94, 0xbe,
  0x86, 0xd2, 0xe4, 0xbd, 0xfe, 0x0e, 0x49, 0xbe, 0xdf, 0x7d, 0x65, 0xbe,
  0x34, 0x84, 0x8d, 0xbd, 0x16, 0x8a, 0xbe, 0xbe, 0x30, 0x41, 0xb6, 0xbc,
  0xed, 0xbe, 0xf6, 0xbe, 0x4b, 0x4b, 0x29, 0xbf, 0xc1, 0x09, 0x26, 0xbe,
  0xcd, 0xbd, 0x6a, 0xbd, 0x11, 0xf5, 0xb6, 0xbb, 0x1d, 0x9a, 0x91, 0xbd,
  0xe8, 0xdb, 0x35, 0x3c, 0x24, 0xff, 0xf1, 0x3c, 0x8e, 0x2b, 0x5f, 0xbe,
  0x2d, 0x56, 0x5e, 0xbd, 0x49, 0x65, 0xc2, 0xbd, 0x31, 0xc6, 0xd0, 0x3c,
  0x20, 0xb0, 0xea, 0x3b, 0xc7, 0x13, 0x46, 0xbd, 0xf6, 0xa9, 0x8d, 0x3d,
  0x64, 0x1b, 0xf8, 0xbd, 0x95, 0x7e, 0x07, 0x3d, 0xd2, 0x26, 0xd9, 0xbd,
  0x7a, 0x9b, 0xfe, 0xbc, 0xf5, 0x8d, 0xba, 0x3e, 0x20, 0xfd, 0x4c, 0x3d,
  0xb7, 0x1a, 0x35, 0xbd, 0x73, 0x2d, 0x85, 0x3e, 0x85, 0x5b, 0x4c, 0x3e,
  0x43, 0xd4, 0x05, 0x3f, 0x60, 0x95, 0xe4, 0x3e, 0x95, 0xfd, 0x2c, 0xbd,
  0x0a, 0xdf, 0xff, 0xff, 0x10, 0x00, 0x00, 0x00, 0x08, 0x00, 0x00, 0x00,
  0x1c, 0x00, 0x00, 0x00, 0x38, 0x00, 0x00, 0x00, 0x04, 0x00, 0x00, 0x00,
  0x10, 0x00, 0x00, 0x00, 0x04, 0x00, 0x00, 0x00, 0x01, 0x00, 0x00, 0x00,
  0x08, 0x00, 0x00, 0x00, 0x1a, 0x00, 0x00, 0x00, 0x73, 0x65, 0x71, 0x75,
  0x65, 0x6e, 0x74, 0x69, 0x61, 0x6c, 0x2f, 0x63, 0x6f, 0x6e, 0x76, 0x32,
  0x64, 0x5f, 0x31, 0x2f, 0x43, 0x6f, 0x6e, 0x76, 0x32, 0x44, 0x00, 0x00,
  0x04, 0xdf, 0xff, 0xff, 0xfa, 0xdf, 0xff, 0xff, 0x04, 0x00, 0x00, 0x00,
  0x80, 0x01, 0x00, 0x00, 0x9f, 0xd8, 0x26, 0xbd, 0x72, 0xc1, 0x61, 0xbd,
  0xbb, 0xf7, 0x1e, 0xbd, 0x4f, 0x06, 0x2f, 0x3c, 0x43, 0xfe, 0x87, 0xbc,
  0xa1, 0xd6, 0x17, 0xbc, 0x7c, 0xb2, 0x01, 0x3e, 0x46, 0x85, 0x4b, 0x3d,
  0xfd, 0x4b, 0xe6, 0x3d, 0xbb, 0xb4, 0xcf, 0x3d, 0x3e, 0xe8, 0x42, 0x3d,
  0x51, 0x58, 0xbb, 0x3d, 0x02, 0x29, 0x62, 0x3a, 0x3e, 0xdf, 0x79, 0x3e,
  0x16, 0x34, 0xc7, 0x3d, 0x3e, 0xa5, 0xaf, 0x3e, 0x8b, 0xeb, 0xa8, 0xbe,
  0x06, 0x3a, 0xc4, 0xbd, 0xdc, 0x92, 0x90, 0xbd, 0x65, 0x32, 0x24, 0x3e,
  0x85, 0x3c, 0x24, 0xbd, 0x4a, 0xdd, 0xbb, 0x3b, 0x20, 0x32, 0xbc, 0x3d,
  0x7d, 0xd9, 0xd5, 0x3d, 0xb8, 0x0e, 0x86, 0xbe, 0xe9, 0x6b, 0x2d, 0x3e,
  0x8c, 0xe3, 0x44, 0x3d, 0x9d, 0xe5, 0x17, 0xbe, 0xf8, 0xe9, 0x0a, 0x3e,
  0x8a, 0x23, 0x11, 0x3b, 0xc7, 0x95, 0x11, 0x3d, 0xe7, 0x5b, 0xd9, 0x3d,
  0xde, 0x60, 0x46, 0x3c, 0x3d, 0x23, 0x7a, 0x3e, 0xfa, 0x47, 0xf8, 0x3c,
  0xba, 0x32, 0x21, 0x3e, 0x98, 0x09, 0xd4, 0x3c, 0xc5, 0xb3, 0x8c, 0xbc,
  0xa1, 0xcd, 0x07, 0x3d, 0xff, 0xa3, 0xc1, 0x3e, 0xf5, 0xe8, 0xaa, 0x3d,
  0x28, 0xbe, 0xf7, 0x3d, 0xac, 0xdd, 0xc6, 0xbd, 0x78, 0xfd, 0x36, 0x3e,
  0x27, 0x6b, 0x2a, 0x3d, 0x0e, 0xb7, 0x6d, 0xbe, 0x4b, 0xe0, 0x77, 0xbe,
  0x30, 0x5a, 0x01, 0xbe, 0x71, 0x90, 0x27, 0x3c, 0xe1, 0x3b, 0x28, 0xbe,
  0xc6, 0xe6, 0xba, 0xbd, 0xe5, 0xaa, 0xb7, 0xbe, 0x75, 0xac, 0xaa, 0xbe,
  0x78, 0xf8, 0x9d, 0xbe, 0xdf, 0xa0, 0xb1, 0x3e, 0x4b, 0xd4, 0x9f, 0x3e,
  0x7d, 0x12, 0x07, 0x3e, 0xef, 0xdd, 0xe0, 0x3d, 0xcd, 0x65, 0x3b, 0x3e,
  0xfe, 0x05, 0x9c, 0x3e, 0xa7, 0x7f, 0x7c, 0x3e, 0xe1, 0x02, 0x9f, 0x3e,
  0x9d, 0x04, 0x98, 0xbd, 0xbc, 0x32, 0x03, 0xbd, 0x57, 0xdc, 0x17, 0x3d,
  0xc6, 0xc0, 0xe6, 0x3d, 0xcf, 0x66, 0x05, 0xbe, 0xfa, 0xc2, 0x84, 0xbe,
  0x8c, 0x7c, 0xd8, 0xbb, 0xad, 0xcc, 0x91, 0xbd, 0xcc, 0x2a, 0xa4, 0xbd,
  0x67, 0x37, 0x86, 0x3d, 0xf0, 0x86, 0x4a, 0x3e, 0xed, 0x6f, 0x3d, 0x3e,
  0x89, 0x47, 0x0f, 0xbf, 0x66, 0x4b, 0x71, 0x3e, 0x8f, 0x25, 0x8a, 0xbd,
  0xcc, 0xb1, 0x08, 0x3e, 0xc2, 0x2e, 0x83, 0xbe, 0xd9, 0x04, 0xbb, 0xbd,
  0x61, 0x04, 0xbf, 0x3e, 0x9c, 0x96, 0xae, 0xbd, 0x2c, 0x7b, 0xee, 0x3c,
  0xe9, 0xc9, 0x73, 0x3d, 0x75, 0x39, 0xd8, 0x3e, 0xa0, 0x14, 0xb0, 0xbc,
  0xa7, 0x3e, 0x06, 0xbd, 0x9f, 0xd8, 0x8f, 0x3e, 0xd8, 0x1b, 0x04, 0x3e,
  0x3d, 0xcb, 0x3e, 0xbe, 0x02, 0x08, 0x09, 0xbe, 0xc6, 0x4d, 0xf4, 0x3d,
  0x0e, 0x9a, 0xa4, 0x3c, 0x02, 0x57, 0x45, 0xbd, 0xcd, 0xe5, 0x94, 0x3d,
  0x7d, 0x57, 0xf3, 0x3d, 0xe2, 0xe0, 0xff, 0xff, 0x10, 0x00, 0x00, 0x00,
  0x07, 0x00, 0x00, 0x00, 0x1c, 0x00, 0x00, 0x00, 0x38, 0x00, 0x00, 0x00,
  0x04, 0x00, 0x00, 0x00, 0x08, 0x00, 0x00, 0x00, 0x04, 0x00, 0x00, 0x00,
  0x03, 0x00, 0x00, 0x00, 0x01, 0x00, 0x00, 0x00, 0x18, 0x00, 0x00, 0x00,
  0x73, 0x65, 0x71, 0x75, 0x65, 0x6e, 0x74, 0x69, 0x61, 0x6c, 0x2f, 0x63,
  0x6f, 0x6e, 0x76, 0x32, 0x64, 0x2f, 0x43, 0x6f, 0x6e, 0x76, 0x32, 0x44,
  0x00, 0x00, 0x00, 0x00, 0xdc, 0xe0, 0xff, 0xff, 0xd2, 0xe1, 0xff, 0xff,
  0x04, 0x00, 0x00, 0x00, 0xc0, 0x00, 0x00, 0x00, 0xfd, 0x47, 0x79, 0xbe,
  0xae, 0xc6, 0xd9, 0x3e, 0x73, 0xb7, 0x44, 0x3e, 0x20, 0x56, 0x8e, 0x3e,
  0x39, 0x78, 0xde, 0xbd, 0xea, 0x06, 0xc3, 0xbe, 0xc0, 0x3f, 0x48, 0x3f,
  0xe0, 0x54, 0xb1, 0x3e, 0x63, 0x33, 0x16, 0xbe, 0xea, 0xfa, 0xc6, 0xbe,
  0xb0, 0xac, 0x4d, 0x3e, 0x76, 0x1b, 0x25, 0xbe, 0x88, 0xc7, 0x21, 0xbe,
  0x2c, 0xb7, 0x1f, 0xbd, 0xec, 0x07, 0x77, 0x3b, 0xae, 0x20, 0xcd, 0xbc,
  0x13, 0xfb, 0x87, 0xbe, 0x89, 0xbf, 0xcf, 0x3e, 0x02, 0x44, 0x5a, 0x3e,
  0x4f, 0xc2, 0x9e, 0x3e, 0x40, 0x2a, 0x02, 0xbe, 0xc3, 0x55, 0xaf, 0x3e,
  0x9f, 0xb2, 0x74, 0x3d, 0x77, 0xc0, 0x62, 0xbf, 0xc6, 0x29, 0xd0, 0xbd,
  0x6c, 0x26, 0x9d, 0xbe, 0x50, 0xf3, 0x76, 0x3e, 0x64, 0xb3, 0x01, 0xbe,
  0xbb, 0x78, 0x45, 0xbe, 0x9b, 0x89, 0x47, 0x3d, 0xab, 0xec, 0xb9, 0x3d,
  0xd7, 0x5c, 0x5b, 0x3d, 0x1f, 0x94, 0xd8, 0x3d, 0x37, 0x90, 0xbf, 0x3e,
  0x69, 0xb8, 0x36, 0x3d, 0xb0, 0x55, 0xba, 0x3e, 0xbb, 0x7d, 0x14, 0xbe,
  0x0e, 0xf3, 0xc9, 0x3c, 0xc4, 0xcc, 0x94, 0xbf, 0xc9, 0xf5, 0x4d, 0xbf,
  0x4b, 0x9d, 0x3a, 0xbe, 0xb3, 0x8f, 0x8b, 0xbe, 0x3c, 0x18, 0x96, 0x3d,
  0xd0, 0xf1, 0x4f, 0xbe, 0xcf, 0x14, 0x63, 0xbe, 0xea, 0x01, 0x4f, 0x3d,
  0xbe, 0xe0, 0xd5, 0x3d, 0x80, 0x40, 0xa4, 0xbc, 0xfa, 0xe1, 0xff, 0xff,
  0x10, 0x00, 0x00, 0x00, 0x06, 0x00, 0x00, 0x00, 0x14, 0x00, 0x00, 0x00,
  0x30, 0x00, 0x00, 0x00, 0x02, 0x00, 0x00, 0x00, 0x03, 0x00, 0x00, 0x00,
  0x10, 0x00, 0x00, 0x00, 0x19, 0x00, 0x00, 0x00, 0x73, 0x65, 0x71, 0x75,
  0x65, 0x6e, 0x74, 0x69, 0x61, 0x6c, 0x2f, 0x64, 0x65, 0x6e, 0x73, 0x65,
  0x5f, 0x31, 0x2f, 0x4d, 0x61, 0x74, 0x4d, 0x75, 0x6c, 0x00, 0x00, 0x00,
  0xec, 0xe1, 0xff, 0xff, 0xe2, 0xe2, 0xff, 0xff, 0x04, 0x00, 0x00, 0x00,
  0x00, 0x1c, 0x00, 0x00, 0x29, 0x2e, 0x45, 0x3e, 0xbe, 0x03, 0x19, 0xbd,
  0xf6, 0xb3, 0x44, 0x3c, 0xe7, 0xd0, 0x77, 0x3e, 0x0e, 0x2d, 0xb0, 0xbd,
  0x8b, 0xb1, 0xb0, 0x3d, 0x0e, 0xc6, 0xbb, 0x3d, 0x78, 0x69, 0x84, 0xbe,
  0x71, 0x34, 0x6c, 0x3d, 0x6f, 0x0a, 0x43, 0xbe, 0xff, 0x16, 0x58, 0x3d,
  0xef, 0x77, 0xb8, 0x3d, 0xb3, 0xbd, 0x14, 0x3c, 0x39, 0x6d, 0xce, 0x3d,
  0x4d, 0x41, 0x08, 0x3e, 0x64, 0x83, 0x66, 0xbe, 0xfd, 0x25, 0x6d, 0x3b,
  0x73, 0xc1, 0xbf, 0x3d, 0x91, 0x57, 0x6e, 0xbe, 0x39, 0x98, 0x92, 0x3d,
  0xbb, 0xd8, 0x4e, 0x3e, 0xd6, 0x84, 0x21, 0xbe, 0x8c, 0x6f, 0x9e, 0xbb,
  0x26, 0xd7, 0x38, 0xbe, 0x29, 0xfc, 0xf1, 0xbd, 0x07, 0xdd, 0x0c, 0x3c,
  0xba, 0x93, 0xa2, 0xbd, 0x26, 0x09, 0x26, 0x3d, 0x51, 0x00, 0x2b, 0xbe,
  0x0e, 0x7c, 0x09, 0xbe, 0x26, 0x56, 0xc6, 0x3d, 0x99, 0x01, 0x0d, 0xbe,
  0x39, 0xcf, 0x99, 0x3d, 0x6d, 0x10, 0xbf, 0xbc, 0x1e, 0x15, 0x6b, 0xbe,
  0xee, 0x05, 0x67, 0x3e, 0xa0, 0x0f, 0x0b, 0x3d, 0xf6, 0x56, 0xa6, 0x3c,
  0xc8, 0xc8, 0x32, 0xbc, 0xdc, 0x5b, 0x63, 0xbd, 0x7c, 0x91, 0xba, 0xbd,
  0xd3, 0xd8, 0x24, 0xbc, 0xe8, 0x63, 0x0c, 0x3e, 0x6f, 0xa5, 0x44, 0x3e,
  0x0d, 0xb0, 0xc8, 0xbe, 0x54, 0xe1, 0x56, 0x3d, 0xf9, 0x31, 0x42, 0x3e,
  0x3d, 0x98, 0x4e, 0xbe, 0x1d, 0x76, 0xd0, 0xbd, 0x4a, 0xce, 0x0e, 0x3e,
  0x87, 0x43, 0x39, 0xbe, 0xb2, 0xdd, 0x1a, 0x3e, 0x1f, 0x99, 0x17, 0x3e,
  0x3f, 0xba, 0x9e, 0x3d, 0x8d, 0x0a, 0x3d, 0x3e, 0x9c, 0x1c, 0x90, 0x3d,
  0xcb, 0x6f, 0x12, 0x3e, 0x8d, 0x77, 0x0d, 0xbe, 0x11, 0x6c, 0x4d, 0xbd,
  0xe0, 0x5e, 0x79, 0x3e, 0x73, 0xb7, 0xce, 0xbe, 0xea, 0x43, 0x3f, 0x3d,
  0x11, 0xf1, 0x6f, 0x3d, 0x51, 0xd7, 0x1b, 0xbe, 0x23, 0xfe, 0xd6, 0x3d,
  0xce, 0xa7, 0xd7, 0x3d, 0x65, 0xe2, 0xc6, 0xbc, 0x1e, 0xa9, 0x09, 0x3e,
  0xcb, 0x64, 0x8f, 0xbd, 0x4e, 0x1b, 0x97, 0x3e, 0x7a, 0x3a, 0xba, 0xbd,
  0xdb, 0x8e, 0x22, 0xbd, 0x81, 0x6c, 0x30, 0xbe, 0xe9, 0x8e, 0x0d, 0x3d,
  0xd8, 0x67, 0x2a, 0xbd, 0xf0, 0xa4, 0x97, 0x3d, 0xaf, 0xf0, 0x86, 0xbe,
  0x09, 0xed, 0x49, 0x3e, 0x36, 0x1d, 0xe2, 0xbd, 0xc7, 0x6c, 0xef, 0x36,
  0x4e, 0x49, 0x92, 0xbb, 0xf7, 0x57, 0x55, 0xbd, 0x92, 0x0c, 0x7f, 0xbe,
  0x2f, 0xe7, 0x04, 0x3d, 0x59, 0xb4, 0x8e, 0xbc, 0xc1, 0x59, 0x70, 0xbd,
  0x96, 0xee, 0x3a, 0x3d, 0x49, 0xa5, 0xab, 0xbd, 0xa2, 0xb5, 0x0d, 0xbd,
  0x51, 0x3c, 0x81, 0xbe, 0x23, 0xce, 0x17, 0xbe, 0xf4, 0x44, 0xa2, 0x3e,
  0xec, 0x06, 0x6d, 0xbe, 0x29, 0x07, 0x69, 0xbd, 0xe3, 0x57, 0xbe, 0xbd,
  0x3f, 0xcc, 0x4e, 0x3d, 0x38, 0xfd, 0x73, 0xbd, 0x1a, 0x43, 0xb4, 0xbc,
  0xc1, 0xf7, 0x1b, 0xbe, 0xd0, 0xd8, 0x32, 0x3e, 0x32, 0x3d, 0x1f, 0xbe,
  0xcf, 0xc3, 0x2c, 0xbe, 0x36, 0xe2, 0x95, 0x3b, 0x5c, 0x63, 0xd5, 0xbd,
  0xb8, 0x25, 0xf3, 0x3d, 0x42, 0x51, 0x61, 0xbc, 0xdc, 0x85, 0xa2, 0xbd,
  0x1f, 0xa9, 0xba, 0x3e, 0xd8, 0xdd, 0x61, 0xbe, 0x2b, 0x44, 0x2c, 0x3e,
  0x81, 0x0a, 0x0b, 0xbb, 0x9c, 0x53, 0xa2, 0xbd, 0x0e, 0x55, 0xe6, 0xbd,
  0x18, 0x7b, 0x2f, 0x3c, 0x12, 0x06, 0xef, 0x3d, 0x68, 0x33, 0xda, 0x3d,
  0x98, 0x78, 0x6f, 0xbe, 0x14, 0x7a, 0x38, 0xbe, 0x01, 0xc9, 0xd4, 0x3d,
  0xa4, 0x88, 0x2f, 0x3e, 0x56, 0xa4, 0xda, 0x3e, 0xff, 0x0d, 0xf1, 0xba,
  0x1f, 0xea, 0x46, 0xbe, 0x33, 0x56, 0x24, 0xbe, 0xd8, 0x36, 0x8b, 0xbd,
  0x2c, 0x45, 0x99, 0xbd, 0x74, 0xc7, 0xa3, 0x3c, 0x99, 0x4d, 0x9f, 0xbe,
  0x5e, 0x9c, 0xed, 0xbd, 0x48, 0x34, 0xfd, 0xbd, 0xe0, 0x89, 0x92, 0xbe,
  0x67, 0xc5, 0x50, 0x3d, 0x9e, 0x11, 0x0f, 0x3e, 0x5c, 0x1a, 0x6d, 0xbd,
  0x13, 0x0b, 0x6a, 0x3e, 0x5c, 0x55, 0x3f, 0xbe, 0x35, 0xc2, 0xb6, 0xbe,
  0x0e, 0xa4, 0x08, 0xbe, 0x91, 0xa4, 0xa7, 0xbe, 0xe9, 0x3a, 0xe4, 0xbd,
  0x2c, 0xe3, 0xef, 0xbd, 0x66, 0xb0, 0x84, 0x3d, 0xc7, 0x1e, 0x22, 0x3d,
  0xfd, 0x4c, 0x69, 0x3e, 0x60, 0xad, 0xa0, 0x3d, 0x9c, 0x3b, 0x52, 0x3d,
  0xff, 0xd3, 0xa4, 0xbe, 0x0b, 0x72, 0xc8, 0x3d, 0x8c, 0xca, 0x9d, 0x3e,
  0x11, 0xc4, 0xe7, 0xbd, 0xee, 0xc8, 0x99, 0x3e, 0x3c, 0x06, 0x73, 0xbe,
  0x20, 0xed, 0xcd, 0x3d, 0x01, 0x14, 0x52, 0x3e, 0xe1, 0x9e, 0x50, 0xbe,
  0xc4, 0xa7, 0xb1, 0xbe, 0xe0, 0x96, 0x0e, 0xbe, 0xf1, 0x07, 0x3e, 0xbd,
  0x93, 0x5c, 0xab, 0x3e, 0x4a, 0xac, 0xae, 0x3e, 0x8e, 0x21, 0x9f, 0x3e,
  0xd3, 0xc9, 0x6f, 0x39, 0x52, 0x8c, 0xad, 0xbd, 0x85, 0x48, 0xe9, 0x3d,
  0xf6, 0x2d, 0xa5, 0x3e, 0x61, 0xd5, 0x37, 0xbe, 0xbe, 0xac, 0x9d, 0x3e,
  0xd9, 0x75, 0x1c, 0xbd, 0x53, 0x8b, 0x24, 0x3e, 0x94, 0x15, 0x9f, 0x3e,
  0x0f, 0xdb, 0x60, 0xbe, 0x17, 0x3e, 0x5e, 0xbe, 0x4e, 0xb1, 0x1e, 0xbc,
  0xc9, 0x39, 0x7f, 0xbd, 0xd4, 0x60, 0x04, 0x3f, 0x56, 0xb5, 0xee, 0x3c,
  0xef, 0x02, 0x01, 0x3f, 0xca, 0xe7, 0x23, 0xbe, 0x8e, 0x95, 0x27, 0x3e,
  0x98, 0x1e, 0x0e, 0x3e, 0x93, 0xe4, 0x04, 0x3e, 0xde, 0x0a, 0x75, 0xbe,
  0x31, 0x85, 0x2f, 0xbe, 0xf2, 0x5c, 0xaa, 0x3d, 0x6c, 0x19, 0xc9, 0x3e,
  0xc3, 0x0a, 0x61, 0x3e, 0x99, 0x74, 0xb1, 0xbe, 0x76, 0x6e, 0x3e, 0xbd,
  0x40, 0x1f, 0xb7, 0xbc, 0x94, 0xe7, 0x7b, 0x3c, 0x23, 0x6d, 0xea, 0x3e,
  0x18, 0x0a, 0x77, 0x3d, 0xa7, 0xba, 0x9b, 0x3e, 0x92, 0x23, 0x6b, 0xbe,
  0x28, 0xed, 0xd2, 0x3d, 0xa9, 0x8c, 0x0f, 0xbd, 0x4b, 0x27, 0x8b, 0xbe,
  0x1a, 0x51, 0x80, 0xbe, 0x51, 0x17, 0x17, 0xbd, 0x50, 0xc3, 0x42, 0x3e,
  0x76, 0xa3, 0x08, 0x3f, 0x7a, 0x8c, 0xb0, 0x3d, 0x19, 0x6e, 0x45, 0xbe,
  0xca, 0x6c, 0xbb, 0xbc, 0xf8, 0xc5, 0xf1, 0x3c, 0x33, 0xe1, 0x3d, 0xbb,
  0x5b, 0x6f, 0x00, 0x3e, 0x5e, 0x86, 0x32, 0x3d, 0x63, 0xbb, 0x2d, 0xbe,
  0x55, 0x23, 0x9e, 0xbe, 0x6b, 0xee, 0xbe, 0xbc, 0xa2, 0x5c, 0xe6, 0xbd,
  0xb1, 0xbb, 0x6c, 0xbd, 0x65, 0x91, 0x3b, 0xbe, 0xec, 0x1c, 0x07, 0x3e,
  0x58, 0x19, 0x1c, 0xbe, 0xcb, 0xf1, 0x43, 0x3e, 0x68, 0x44, 0x01, 0x3e,
  0x04, 0xc9, 0x1a, 0xbe, 0xcc, 0xe9, 0xa3, 0xbe, 0xa0, 0x1f, 0xad, 0xbd,
  0x60, 0x0b, 0xa4, 0xbd, 0x41, 0xcc, 0xa9, 0x3d, 0xa4, 0x7c, 0xcc, 0x3c,
  0x8c, 0x1d, 0x0a, 0xbe, 0x1c, 0xd6, 0x09, 0xbd, 0x87, 0x43, 0xfc, 0xbc,
  0x21, 0x58, 0x00, 0xbd, 0xd2, 0x7d, 0x1f, 0x3e, 0xe4, 0x2f, 0x90, 0xbc,
  0xcb, 0x74, 0x03, 0x3e, 0x96, 0x37, 0x1f, 0x3d, 0x13, 0x5c, 0xaf, 0x3c,
  0x46, 0xe5, 0x1b, 0x3e, 0xf1, 0xdb, 0xda, 0xbd, 0x1e, 0x07, 0x31, 0xbd,
  0x7c, 0x30, 0x2d, 0x3c, 0x73, 0x7f, 0x45, 0x3e, 0x93, 0xf7, 0x30, 0x3e,
  0x4c, 0xd2, 0x8f, 0xbd, 0x06, 0xd5, 0x63, 0x3d, 0x47, 0x74, 0x71, 0xbe,
  0x49, 0xa4, 0x87, 0xbd, 0x10, 0x36, 0x4a, 0xbe, 0x89, 0x54, 0xb6, 0x3d,
  0xdf, 0x15, 0x53, 0xbd, 0xa2, 0x0c, 0x13, 0x3e, 0x3b, 0x42, 0xa4, 0x3b,
  0x11, 0x3d, 0x2a, 0xbe, 0x35, 0x1e, 0xcf, 0xbc, 0x34, 0x55, 0x40, 0xbe,
  0x15, 0xeb, 0x5e, 0xbd, 0xe3, 0xb5, 0x33, 0x3c, 0x18, 0x10, 0x08, 0x3e,
  0x7e, 0x31, 0x0e, 0x3e, 0x32, 0xc4, 0xc4, 0x3d, 0x76, 0x94, 0xd9, 0x3c,
  0x5f, 0xfa, 0x03, 0xbe, 0x77, 0xd9, 0x14, 0x3d, 0x1b, 0x12, 0x4b, 0x3d,
  0xb7, 0x7d, 0xb5, 0xbc, 0xc1, 0x08, 0xa6, 0xbd, 0xcb, 0xfb, 0x08, 0xbc,
  0x9b, 0x68, 0xda, 0x3c, 0x26, 0x8b, 0x2c, 0x3e, 0x31, 0xfd, 0x2d, 0xbb,
  0x41, 0x2c, 0x2a, 0xbe, 0x94, 0xef, 0x8f, 0xbe, 0x96, 0x18, 0x12, 0x3c,
  0x86, 0x86, 0x80, 0x3b, 0x3a, 0x5a, 0xfb, 0x3c, 0x26, 0x82, 0x9a, 0x3d,
  0x0a, 0xa6, 0xca, 0x3c, 0x65, 0xf5, 0x47, 0x3d, 0x9b, 0x24, 0x22, 0x3d,
  0x66, 0x1f, 0x17, 0xbe, 0x05, 0xa2, 0xc7, 0x3b, 0x82, 0x86, 0x48, 0xbe,
  0x27, 0x36, 0x5f, 0xbe, 0x80, 0x87, 0x0d, 0xbc, 0xce, 0xf7, 0xc1, 0x3d,
  0x97, 0x8b, 0x0e, 0xbb, 0xeb, 0x51, 0x9f, 0xbe, 0xca, 0x51, 0x0a, 0xbf,
  0x50, 0x07, 0x2f, 0xbb, 0xd4, 0x18, 0x01, 0xbe, 0x3d, 0xa2, 0xb5, 0x3d,
  0x2d, 0x34, 0x42, 0xbc, 0x82, 0x40, 0x5b, 0xbe, 0xe0, 0x7e, 0x4b, 0xbd,
  0x53, 0x91, 0x63, 0xbd, 0x13, 0x1a, 0x35, 0x3d, 0x6a, 0xf6, 0xff, 0x3c,
  0x2d, 0x3e, 0x06, 0xbd, 0xa5, 0xeb, 0xd3, 0x3d, 0x67, 0xdb, 0x92, 0xbd,
  0x29, 0xf5, 0x39, 0x3c, 0x59, 0x51, 0xef, 0xbc, 0xcb, 0x19, 0x81, 0xbd,
  0x91, 0x4c, 0x86, 0x3d, 0x1c, 0xb2, 0x30, 0xbc, 0x5f, 0xe4, 0x0b, 0x3e,
  0xc8, 0xa2, 0x75, 0x3c, 0xb9, 0x28, 0x00, 0x3e, 0x58, 0x47, 0x7a, 0xbd,
  0xf3, 0x9b, 0xfe, 0x3d, 0x8b, 0xd0, 0xc5, 0xbc, 0x44, 0x99, 0xdf, 0x3d,
  0x83, 0x12, 0xc8, 0x3d, 0xe2, 0x00, 0xba, 0xbd, 0x2d, 0x7c, 0x48, 0x3d,
  0xb8, 0xa4, 0xfb, 0x3c, 0xe2, 0xe6, 0x37, 0xbc, 0x49, 0x03, 0xf3, 0xb9,
  0x53, 0x2c, 0xdc, 0xbc, 0x9a, 0xeb, 0xfc, 0x3d, 0x22, 0x75, 0xb2, 0xbb,
  0xf2, 0xbf, 0x79, 0x3d, 0x55, 0xd9, 0x4b, 0x3e, 0x68, 0x31, 0xb8, 0x3d,
  0x57, 0xc5, 0xf4, 0x3d, 0xe6, 0xdd, 0xe2, 0xbc, 0x1a, 0xd4, 0x3e, 0x3c,
  0x55, 0xbb, 0xd4, 0xbd, 0xb5, 0x88, 0xd1, 0xbc, 0x88, 0x98, 0x26, 0xbd,
  0x28, 0x60, 0x40, 0x3e, 0xfa, 0xdf, 0x25, 0xbb, 0xe6, 0x17, 0x7a, 0xbc,
  0xe7, 0x19, 0x9d, 0x3d, 0x4f, 0x38, 0x83, 0x3c, 0x53, 0x3b, 0x85, 0xbe,
  0x54, 0xe6, 0xf8, 0xbb, 0x23, 0x61, 0x15, 0x3c, 0x34, 0xdd, 0x02, 0x3e,
  0xba, 0x57, 0xc2, 0x3d, 0x95, 0x20, 0x50, 0x3f, 0x4f, 0x7e, 0x12, 0x3e,
  0xb2, 0xba, 0x73, 0x3d, 0xf4, 0x46, 0x01, 0x3f, 0x22, 0x14, 0x81, 0xbe,
  0xb0, 0x28, 0x47, 0xbe, 0x62, 0xb3, 0x10, 0xbf, 0x47, 0x04, 0x09, 0xbe,
  0x93, 0xf3, 0xcb, 0xbe, 0xb5, 0x16, 0xa1, 0xbe, 0xed, 0x93, 0x6e, 0x3d,
  0x39, 0x8d, 0x30, 0x3e, 0x79, 0xbf, 0x12, 0xbd, 0xb2, 0x1c, 0xcb, 0xbe,
  0x66, 0x64, 0x85, 0xbe, 0x86, 0x54, 0x3f, 0xbd, 0x23, 0x26, 0x57, 0x3e,
  0xb8, 0xc7, 0xe9, 0x3d, 0x70, 0x57, 0x9b, 0x3d, 0x61, 0x3c, 0x90, 0x3e,
  0xae, 0x0e, 0x4c, 0x3d, 0x7f, 0xd8, 0x0b, 0x3c, 0x0a, 0xcf, 0xde, 0xbe,
  0xc5, 0x5d, 0x48, 0xbc, 0x35, 0x9f, 0x94, 0x3d, 0xb5, 0xef, 0x4e, 0xbe,
  0x1f, 0xdc, 0x57, 0x3e, 0x3e, 0x06, 0x48, 0x3f, 0x09, 0xd2, 0xad, 0x3c,
  0x72, 0xc5, 0x26, 0xbd, 0x3b, 0x34, 0x94, 0xbe, 0xc0, 0x2f, 0x9b, 0xbe,
  0x62, 0x38, 0x99, 0x3e, 0xad, 0x5e, 0xde, 0xbc, 0x9b, 0xc5, 0x0b, 0x3e,
  0x40, 0xc7, 0xdc, 0x3e, 0x88, 0x80, 0x2f, 0xbd, 0xa5, 0x9e, 0x20, 0xbe,
  0x8a, 0x91, 0x43, 0xbe, 0x49, 0x9f, 0x83, 0x3c, 0xb4, 0xdd, 0xcb, 0x3c,
  0xea, 0x8c, 0xa7, 0x3c, 0xe8, 0x29, 0xce, 0x3d, 0x9f, 0x70, 0xf1, 0x3e,
  0x94, 0x86, 0xb2, 0x3d, 0x8c, 0x04, 0x36, 0x3e, 0x2a, 0x32, 0x12, 0x3d,
  0x70, 0xd9, 0x05, 0xbf, 0xe3, 0x54, 0x67, 0x3e, 0x8c, 0xdf, 0xd9, 0x3c,
  0xa5, 0xf2, 0xb8, 0x3b, 0x20, 0x17, 0xd8, 0x3e, 0x2c, 0xe8, 0x4b, 0xbe,
  0xcd, 0xeb, 0x4c, 0xbd, 0x00, 0x1d, 0x10, 0x3d, 0x6c, 0x24, 0x94, 0x39,
  0x92, 0xad, 0x60, 0x3c, 0x86, 0x93, 0x95, 0xbd, 0x74, 0x1b, 0xe6, 0x3d,
  0x55, 0xee, 0xb5, 0x3e, 0xe5, 0xfe, 0x39, 0x3d, 0xac, 0x64, 0x39, 0x3e,
  0x92, 0x7d, 0x14, 0xbe, 0x73, 0x87, 0x72, 0xbe, 0xed, 0xcc, 0xc4, 0x3e,
  0x7b, 0x9c, 0xae, 0x3d, 0x39, 0x60, 0x00, 0x3d, 0x4e, 0xd0, 0x2b, 0x3e,
  0x66, 0xea, 0x4e, 0xbe, 0x80, 0xf0, 0xaa, 0xbd, 0xa5, 0x91, 0x93, 0xbd,
  0xf0, 0xd5, 0x2c, 0x3d, 0xf8, 0x3d, 0x85, 0xbc, 0x3b, 0x1c, 0x47, 0xbc,
  0x0b, 0x62, 0xd8, 0x3c, 0x38, 0x22, 0x02, 0x3f, 0xa9, 0xa5, 0xbf, 0x3d,
  0x7c, 0x64, 0x5e, 0x3d, 0x13, 0xb7, 0x1e, 0xbc, 0x4b, 0xe1, 0xc1, 0xbe,
  0x05, 0x65, 0xc6, 0xbe, 0xbb, 0x02, 0x47, 0xbc, 0x35, 0xa5, 0xdb, 0x3d,
  0x34, 0x6e, 0x96, 0x3e, 0x2f, 0xa9, 0xa3, 0x3d, 0xae, 0x76, 0x3e, 0xbe,
  0x25, 0x45, 0x51, 0xbe, 0xcc, 0x94, 0x6d, 0xbc, 0x29, 0xcb, 0x98, 0xbd,
  0x35, 0xb1, 0xad, 0xbe, 0x12, 0x19, 0x23, 0x3d, 0x2d, 0x5e, 0xd9, 0x3e,
  0xcc, 0x6d, 0x02, 0x3d, 0x6f, 0xf0, 0x05, 0x3d, 0xd4, 0x04, 0xcc, 0xbe,
  0x89, 0x57, 0x53, 0xbf, 0x73, 0x78, 0x3e, 0xbe, 0xcb, 0x4b, 0x80, 0x3e,
  0x11, 0x40, 0x37, 0xbd, 0x25, 0x5a, 0x0c, 0x3f, 0xc5, 0xee, 0xef, 0xbc,
  0xc3, 0xa0, 0xf6, 0xbd, 0x8a, 0x6a, 0xcb, 0xbe, 0x77, 0xc1, 0xcd, 0x3d,
  0xaf, 0x52, 0x06, 0x3e, 0xd2, 0x16, 0xaa, 0xbe, 0x44, 0xef, 0x7b, 0xbd,
  0x8e, 0x00, 0x09, 0x3f, 0xad, 0xc0, 0x7f, 0x3d, 0xa6, 0x04, 0x91, 0xbc,
  0xbb, 0x79, 0x46, 0xbe, 0x5a, 0xd9, 0x2f, 0xbe, 0x84, 0x9f, 0x21, 0x3d,
  0x89, 0x60, 0x68, 0x3c, 0x1f, 0xa9, 0xe0, 0xbb, 0x9f, 0x9c, 0xf6, 0xbd,
  0x47, 0xef, 0xae, 0xbd, 0xca, 0x28, 0xb7, 0xbe, 0x39, 0x82, 0x35, 0xbe,
  0x05, 0x52, 0x29, 0x3e, 0x4b, 0xe1, 0xad, 0x3e, 0xbc, 0x3f, 0x2f, 0x3e,
  0x75, 0xff, 0x79, 0xbe, 0x3c, 0x80, 0x21, 0xbd, 0xd2, 0x6b, 0x10, 0xbe,
  0xe4, 0xce, 0x94, 0xbd, 0x38, 0xac, 0x4d, 0x3c, 0x61, 0xba, 0x3f, 0x3d,
  0x86, 0xc5, 0x06, 0x3f, 0xbc, 0x95, 0xa3, 0x3d, 0x50, 0x32, 0x5d, 0xbd,
  0x57, 0x65, 0x3a, 0xbe, 0x9f, 0x94, 0xfe, 0xbd, 0x09, 0x9f, 0xa5, 0xbe,
  0x8c, 0x52, 0x03, 0xbd, 0x49, 0x49, 0xdc, 0x3d, 0xab, 0x45, 0xd7, 0x3e,
  0x2c, 0x9d, 0x6c, 0x3e, 0xbc, 0x1f, 0x85, 0xbe, 0xce, 0xea, 0x7e, 0x3d,
  0x2a, 0x60, 0x6c, 0x3c, 0x00, 0xe8, 0xc4, 0xbd, 0xc6, 0xee, 0xdc, 0x3d,
  0x68, 0x8e, 0x5d, 0x3e, 0x16, 0xbb, 0xaa, 0xbc, 0xbb, 0x0f, 0x14, 0x3e,
  0xef, 0x81, 0x4f, 0xbe, 0x64, 0x15, 0xa7, 0x3c, 0x94, 0x61, 0xcd, 0x3d,
  0xf2, 0x53, 0x42, 0xbe, 0x34, 0x61, 0x7c, 0x3e, 0x5c, 0x34, 0xc0, 0xbd,
  0xf3, 0x24, 0x28, 0xbe, 0x1b, 0x2b, 0xb1, 0x3e, 0x5b, 0x77, 0x34, 0xbd,
  0x17, 0x1f, 0xa1, 0xbe, 0x34, 0xfd, 0x44, 0xbd, 0x9a, 0x17, 0xf6, 0x3d,
  0x2e, 0x93, 0xd9, 0x3e, 0x1a, 0xd4, 0xc1, 0x3e, 0x7e, 0xd0, 0x81, 0x3e,
  0xa1, 0xd0, 0x38, 0xbd, 0x0e, 0x34, 0x2e, 0xbe, 0x02, 0x20, 0x29, 0x3e,
  0x26, 0xde, 0xcb, 0x3e, 0x81, 0x4e, 0x58, 0xbe, 0xf0, 0xd3, 0xad, 0x3e,
  0x3c, 0xfd, 0x43, 0x3c, 0x58, 0x16, 0xb9, 0x3e, 0xa5, 0x77, 0xa4, 0x3e,
  0x1e, 0x8b, 0x0a, 0xbe, 0x85, 0xcd, 0x60, 0xbe, 0xaa, 0x63, 0xc3, 0xbb,
  0xe9, 0xb1, 0xb4, 0x3e, 0xd2, 0xce, 0xa1, 0x3e, 0x83, 0x10, 0x83, 0x3e,
  0xa3, 0x25, 0x1c, 0x3f, 0x1b, 0xf1, 0xd0, 0x3d, 0x73, 0x3a, 0xe4, 0xbd,
  0xaa, 0x18, 0xcd, 0x3d, 0xee, 0xe2, 0x01, 0x3e, 0xbf, 0x84, 0x3b, 0xbe,
  0x3f, 0xfc, 0x46, 0xbe, 0x86, 0x46, 0x96, 0xbd, 0x28, 0x88, 0xd7, 0x3e,
  0xb8, 0x76, 0x2d, 0x3d, 0xc4, 0x45, 0xc4, 0xbe, 0x31, 0xe5, 0x63, 0xbd,
  0x5e, 0xd2, 0xae, 0x3c, 0x63, 0x18, 0x8c, 0xbd, 0x84, 0x14, 0xbd, 0x3e,
  0x91, 0x63, 0x38, 0x3d, 0x4f, 0xce, 0xe4, 0x3e, 0xc4, 0xe1, 0xa6, 0xbd,
  0xed, 0x74, 0xc4, 0x3d, 0x1f, 0x20, 0xba, 0xbd, 0x16, 0xcd, 0xb0, 0xbd,
  0xd5, 0x94, 0xf8, 0xbe, 0x47, 0x8a, 0x2a, 0xbe, 0xc3, 0x75, 0xd2, 0x3d,
  0x8b, 0x4a, 0xa5, 0x3e, 0xb7, 0x26, 0x47, 0x3e, 0x02, 0x35, 0xd3, 0xbe,
  0xb9, 0x91, 0xd7, 0xbd, 0xa4, 0xab, 0xa7, 0xbd, 0x79, 0x4c, 0xe1, 0xbd,
  0x28, 0xc8, 0x4e, 0x3e, 0x69, 0xc7, 0x48, 0x3d, 0x9d, 0x4f, 0xfe, 0x3e,
  0x97, 0x97, 0x04, 0xbe, 0x88, 0xf7, 0xb0, 0x3d, 0x16, 0x04, 0x37, 0xbd,
  0x40, 0xc6, 0x63, 0xbc, 0x71, 0xed, 0x08, 0xbd, 0x0f, 0x11, 0xcd, 0x3b,
  0xdd, 0x40, 0x63, 0xbd, 0xfa, 0xa2, 0x75, 0x3e, 0x8a, 0x03, 0x23, 0x3e,
  0x8b, 0x9a, 0x64, 0xbe, 0x00, 0xd5, 0x4c, 0x3e, 0xd6, 0x7e, 0x1f, 0xbd,
  0x94, 0x8d, 0x10, 0xbe, 0x6e, 0x9f, 0x62, 0x3d, 0x7c, 0x59, 0x66, 0xbd,
  0x82, 0x0c, 0x85, 0xbd, 0x60, 0xa5, 0x28, 0xbe, 0x48, 0x86, 0x86, 0xbe,
  0xc0, 0xc6, 0x91, 0xbd, 0x3d, 0x22, 0x29, 0xbe, 0x95, 0xee, 0x89, 0x3d,
  0xaf, 0x01, 0x8f, 0x3d, 0xd6, 0xfa, 0x49, 0xbc, 0x62, 0x73, 0x45, 0x3c,
  0x9f, 0xca, 0xb3, 0xbc, 0xa7, 0xbb, 0x87, 0xbe, 0x34, 0x96, 0xb0, 0xbb,
  0x9d, 0xf7, 0xac, 0xbe, 0x9b, 0x73, 0xf9, 0x3d, 0xec, 0x8a, 0xe3, 0xbd,
  0x02, 0xd6, 0x39, 0xbe, 0xc7, 0xf6, 0xa7, 0x3d, 0xf0, 0xe9, 0x32, 0xbe,
  0x0a, 0x3f, 0xc2, 0x3d, 0xbf, 0xbe, 0x1b, 0xbc, 0x4a, 0xb1, 0x34, 0xbe,
  0xf4, 0xfb, 0x92, 0xbd, 0x42, 0xa9, 0x04, 0xbb, 0x03, 0x1c, 0x45, 0xbe,
  0xf7, 0x73, 0x1f, 0xbe, 0x0d, 0x7d, 0xf2, 0xbc, 0x69, 0x5a, 0xd3, 0xbb,
  0x78, 0xff, 0xd0, 0xbd, 0x23, 0x4f, 0x8f, 0xbe, 0x6a, 0xc9, 0x4a, 0xbe,
  0xf3, 0xa2, 0xa9, 0xbd, 0x88, 0x91, 0xdc, 0xbd, 0xc0, 0x69, 0xa0, 0xbd,
  0xd3, 0x54, 0x43, 0xbe, 0x07, 0x4b, 0xbb, 0xbd, 0x96, 0xbc, 0xfd, 0xbd,
  0x9c, 0xbc, 0x28, 0xbe, 0x6b, 0x12, 0xbb, 0xbb, 0x9f, 0xf4, 0xb7, 0x3d,
  0x7d, 0x5c, 0xe7, 0x3c, 0xba, 0x62, 0x53, 0xbe, 0x3b, 0x47, 0xbe, 0xbd,
  0xa5, 0xb0, 0x59, 0xbd, 0x92, 0x54, 0x31, 0x3e, 0x33, 0xea, 0xa4, 0xbd,
  0x89, 0x4e, 0x54, 0xbe, 0x64, 0x1c, 0x82, 0xbd, 0x56, 0xf0, 0x53, 0xbe,
  0x38, 0xfe, 0xac, 0xbd, 0xe9, 0x13, 0x12, 0x3d, 0x99, 0xea, 0x63, 0xbe,
  0x6f, 0xf1, 0x3c, 0x3e, 0x43, 0xb1, 0x2c, 0xbe, 0x6f, 0x62, 0xfb, 0x3b,
  0xff, 0xf0, 0x5e, 0xbd, 0xe8, 0x95, 0x60, 0xbe, 0xa9, 0x7f, 0x40, 0x3e,
  0x12, 0x99, 0x14, 0x3d, 0xb7, 0xd4, 0xe7, 0xbd, 0xdd, 0x10, 0x68, 0xbd,
  0x5f, 0xf1, 0xbb, 0xbe, 0xdf, 0x0c, 0x18, 0x3e, 0x3b, 0xdb, 0x99, 0x3d,
  0x6e, 0xff, 0x84, 0xbe, 0x28, 0xe4, 0x8d, 0x3d, 0x99, 0x49, 0x4a, 0xbe,
  0x92, 0xda, 0x3f, 0xbe, 0xbd, 0x8c, 0x79, 0x3d, 0xdf, 0xb8, 0xa6, 0xbd,
  0x01, 0x2e, 0xe6, 0xbd, 0x76, 0xd0, 0xee, 0xbd, 0x40, 0x6f, 0xf6, 0xbd,
  0xfd, 0x73, 0x3d, 0x3e, 0xc6, 0x77, 0x45, 0x3d, 0xd2, 0x68, 0xa1, 0xbd,
  0xe7, 0x80, 0x8e, 0x3d, 0x21, 0xd4, 0x3a, 0xbe, 0xc8, 0x9a, 0x27, 0x3e,
  0xda, 0xbd, 0xee, 0x3d, 0x1b, 0x5e, 0x20, 0xbe, 0x0d, 0x72, 0x46, 0x3e,
  0x02, 0xb1, 0xe4, 0xbd, 0x58, 0x6d, 0x70, 0xbe, 0x32, 0x64, 0x2f, 0xbe,
  0xac, 0xf9, 0x3c, 0x3d, 0x8e, 0x41, 0xe0, 0x3c, 0x5e, 0x2f, 0x79, 0xbe,
  0x4b, 0x2b, 0x28, 0x3d, 0x72, 0x7c, 0x32, 0xbe, 0xc8, 0xef, 0xfe, 0x3a,
  0x6c, 0x96, 0xc1, 0xbd, 0x1f, 0xc3, 0x0e, 0xbe, 0x84, 0x5f, 0x45, 0xbe,
  0xb8, 0xce, 0xf8, 0xbd, 0x33, 0x03, 0xcc, 0xbd, 0xa7, 0x17, 0x5a, 0xbe,
  0xe0, 0x14, 0xfb, 0xbd, 0xe7, 0xd6, 0x50, 0x3d, 0x00, 0x8e, 0x7c, 0xbe,
  0x4d, 0xd4, 0x5a, 0x3e, 0x92, 0xdd, 0x7b, 0xbe, 0xbf, 0x5f, 0x40, 0xbe,
  0xff, 0xc8, 0x81, 0xbe, 0x89, 0x99, 0xc8, 0x3b, 0x51, 0x32, 0x21, 0xbc,
  0xd1, 0xaf, 0xa4, 0x3d, 0x91, 0x76, 0xb5, 0x3d, 0x17, 0x4c, 0x94, 0x3d,
  0xd7, 0xe9, 0xa5, 0xbe, 0x0e, 0x76, 0x6b, 0x3d, 0xdf, 0x32, 0x7b, 0xbe,
  0x49, 0x8e, 0x9c, 0xbe, 0x8a, 0xca, 0x2a, 0xbe, 0xd0, 0xdd, 0x89, 0xbd,
  0x17, 0xbc, 0x39, 0xbe, 0xe0, 0x89, 0xf6, 0x3d, 0x9e, 0x22, 0x8b, 0xbe,
  0x6b, 0x45, 0x13, 0xbe, 0x30, 0x8d, 0x93, 0xbc, 0x9d, 0xa7, 0x37, 0xbd,
  0x68, 0x92, 0x88, 0xbd, 0x45, 0x6e, 0x3d, 0x3d, 0x06, 0x5a, 0x9a, 0xbe,
  0x4a, 0xc4, 0x0f, 0xbd, 0xfe, 0xf3, 0xc2, 0xbe, 0x76, 0x04, 0x51, 0x3d,
  0x03, 0xfa, 0x50, 0xbe, 0xf2, 0x51, 0xa4, 0xbe, 0x53, 0xb6, 0xa2, 0xbd,
  0x38, 0x77, 0x3d, 0x3f, 0xde, 0x5e, 0x72, 0x3e, 0xb2, 0x5a, 0xc6, 0x3d,
  0x41, 0x2d, 0x5a, 0xbd, 0xb9, 0x31, 0x0a, 0x3e, 0x4d, 0x81, 0xc1, 0x3a,
  0x6e, 0x61, 0x2e, 0xbe, 0x49, 0xba, 0x8f, 0xbc, 0x40, 0x5f, 0x98, 0xbd,
  0xb8, 0xb9, 0xf3, 0xbc, 0xf0, 0xb7, 0x2d, 0x3e, 0xff, 0x85, 0xa9, 0xbe,
  0xe7, 0x86, 0x0a, 0x3e, 0xbf, 0xc9, 0xa2, 0x3c, 0xdf, 0xcd, 0x5e, 0xbd,
  0xc4, 0xf6, 0x95, 0xbd, 0xbe, 0x11, 0x13, 0x3f, 0x6e, 0x6f, 0x6d, 0x3e,
  0x23, 0x45, 0x02, 0xbe, 0x0e, 0xfe, 0x71, 0xbd, 0x0c, 0x02, 0xc0, 0xbd,
  0x0a, 0x85, 0x18, 0xbe, 0x5a, 0xa3, 0x19, 0xbe, 0x69, 0x08, 0x6c, 0xbe,
  0xd4, 0xd7, 0x74, 0xbe, 0xf7, 0x7f, 0x5d, 0xbe, 0x51, 0xa2, 0xe8, 0x3e,
  0x4e, 0x19, 0x19, 0xbe, 0x99, 0x42, 0x3b, 0xbe, 0xf8, 0x0c, 0xfd, 0x3d,
  0x4a, 0x4d, 0x44, 0xbd, 0x76, 0x90, 0x25, 0x3e, 0xba, 0x69, 0x50, 0x3f,
  0x1d, 0x4c, 0x73, 0x3d, 0x15, 0x9f, 0x2b, 0x3e, 0x22, 0x7c, 0x39, 0xbe,
  0x0f, 0xdb, 0x2b, 0xbe, 0x80, 0x8f, 0x8b, 0x3c, 0x71, 0x4f, 0x3f, 0xbe,
  0x2d, 0x61, 0xc5, 0x3d, 0xca, 0x6a, 0xad, 0x3d, 0xce, 0xdc, 0x5d, 0xbe,
  0xf8, 0x64, 0x90, 0x3e, 0xfe, 0xe3, 0x5a, 0xbe, 0x01, 0x76, 0xd5, 0xbd,
  0x67, 0x5e, 0xdd, 0x3c, 0xc7, 0x8a, 0x33, 0xbd, 0x68, 0xc7, 0xd6, 0x3d,
  0x29, 0xdc, 0xb3, 0x3e, 0x8b, 0xd7, 0x37, 0x3e, 0x80, 0x70, 0xeb, 0x3d,
  0x06, 0x19, 0x91, 0x3a, 0x3f, 0x9d, 0xfa, 0xbd, 0x94, 0x0d, 0xa8, 0x3d,
  0x3f, 0x6b, 0x68, 0xbe, 0x1e, 0x0c, 0x2b, 0x3e, 0xac, 0xe2, 0xbb, 0x3c,
  0x17, 0xcd, 0x5b, 0xbd, 0xe3, 0x22, 0xde, 0x3e, 0x1a, 0xe2, 0x5f, 0xbe,
  0x97, 0x89, 0x01, 0xbd, 0x10, 0xed, 0x58, 0xbe, 0x2a, 0x22, 0xaa, 0xbe,
  0x53, 0xd0, 0x26, 0x3d, 0x62, 0x3a, 0x11, 0x3f, 0x0b, 0xca, 0xa9, 0x3d,
  0x93, 0x43, 0x80, 0xbd, 0x1b, 0xe9, 0x1d, 0xbe, 0x25, 0x00, 0x90, 0xbd,
  0xa4, 0x3b, 0xd7, 0x3d, 0xb0, 0x35, 0x00, 0xbe, 0xb4, 0x30, 0x1c, 0xbe,
  0xb0, 0x96, 0x19, 0xbe, 0xc5, 0x32, 0x3e, 0xbe, 0x06, 0x45, 0x42, 0x3e,
  0xa4, 0xe5, 0x33, 0xbe, 0xa3, 0xd1, 0x87, 0xbc, 0x63, 0x64, 0x13, 0xbe,
  0xa8, 0x48, 0xf5, 0xba, 0x7c, 0x17, 0xb8, 0x3d, 0x5d, 0x21, 0xb6, 0x3d,
  0x14, 0xb8, 0x2b, 0x3c, 0x6d, 0xd4, 0x5a, 0xbe, 0x17, 0x2a, 0xed, 0xbd,
  0x7d, 0xdc, 0x2d, 0xbe, 0x68, 0x93, 0xa4, 0xbd, 0x5e, 0xda, 0x35, 0xbe,
  0xaa, 0x51, 0x9b, 0xbe, 0x6e, 0xec, 0xd0, 0xbd, 0x12, 0x2b, 0x73, 0xbe,
  0xbd, 0xcc, 0xfe, 0x3e, 0x0e, 0x09, 0xa4, 0xbe, 0xea, 0x1b, 0x2d, 0xbe,
  0x09, 0x44, 0x09, 0xbe, 0x9e, 0xfb, 0x8c, 0xbe, 0x66, 0x3c, 0x37, 0xbe,
  0x4f, 0x99, 0xcd, 0xbb, 0x27, 0x68, 0x65, 0xbe, 0x6f, 0x6f, 0x27, 0xbe,
  0x55, 0x54, 0x9a, 0xbd, 0xab, 0xf5, 0x6f, 0xbe, 0xbc, 0x01, 0x8e, 0xbe,
  0x58, 0x96, 0xcc, 0x3c, 0x0f, 0x79, 0x1a, 0xbe, 0x86, 0x03, 0x97, 0x3c,
  0x76, 0x23, 0x5f, 0xbe, 0xd1, 0x89, 0xa7, 0xbe, 0xb3, 0x31, 0xbd, 0xbe,
  0x7c, 0xd0, 0xe7, 0x3c, 0xef, 0xfd, 0xd4, 0xbd, 0x80, 0x41, 0x3c, 0xbe,
  0xb7, 0x5b, 0x21, 0x3e, 0x83, 0x34, 0x1d, 0x3f, 0x4f, 0x38, 0x04, 0x3f,
  0x3f, 0xa3, 0x05, 0xbd, 0x9f, 0x9c, 0x1a, 0xbe, 0x0f, 0xd9, 0xa1, 0x3d,
  0xcf, 0x92, 0x07, 0x3e, 0xb2, 0xe3, 0x7e, 0xbe, 0xf4, 0xcb, 0xf7, 0xbd,
  0x59, 0xcb, 0xa7, 0x3d, 0x96, 0x3a, 0xb9, 0xbd, 0xe4, 0x3c, 0x65, 0x3e,
  0x0f, 0x69, 0x7f, 0xbe, 0xb9, 0x97, 0x44, 0x3d, 0x73, 0x55, 0x44, 0xbd,
  0xbd, 0xa4, 0x94, 0xbe, 0xc5, 0xfd, 0x6b, 0xbe, 0x78, 0xdf, 0x6b, 0x3f,
  0xce, 0xa4, 0xaa, 0x3d, 0xb8, 0x6d, 0x1b, 0xbc, 0xad, 0x2a, 0xfc, 0xbd,
  0x9e, 0xad, 0xb7, 0x3d, 0xcd, 0x80, 0xc5, 0x3c, 0xe2, 0x67, 0x5b, 0x3d,
  0xf8, 0xe4, 0x97, 0x3d, 0x41, 0xd2, 0x3a, 0x3d, 0x3a, 0xe5, 0x8d, 0xbd,
  0xb9, 0xd2, 0x59, 0x3e, 0x9b, 0x38, 0x84, 0xbe, 0x11, 0xef, 0xc6, 0x3d,
  0x74, 0x1d, 0x3e, 0xbe, 0x82, 0x14, 0x50, 0x3d, 0x4e, 0x00, 0xd1, 0x3d,
  0xbf, 0x79, 0xda, 0x3e, 0x16, 0x59, 0xae, 0x3c, 0x00, 0xba, 0x4e, 0xbe,
  0x7a, 0x3d, 0x14, 0xbe, 0xc9, 0x38, 0x57, 0xbe, 0x77, 0x47, 0x3c, 0xbe,
  0x2d, 0x63, 0x0d, 0xbe, 0x0a, 0x78, 0x4b, 0x3e, 0xef, 0x94, 0xc4, 0xbd,
  0x87, 0x29, 0xd7, 0xbd, 0xa8, 0xf8, 0x02, 0x3f, 0x30, 0x72, 0x90, 0xbe,
  0x91, 0xc1, 0x56, 0xbe, 0xbb, 0x20, 0xa9, 0xbb, 0xf8, 0x5b, 0x8a, 0xbe,
  0x39, 0xf5, 0xf1, 0xbd, 0x60, 0x27, 0x07, 0x3f, 0xd7, 0x78, 0x4d, 0x3e,
  0x5b, 0xb2, 0x87, 0x3d, 0x5c, 0xc2, 0xcb, 0xbd, 0xba, 0x36, 0x74, 0xbe,
  0x3c, 0x8d, 0x46, 0xbd, 0x6d, 0xa9, 0x86, 0xbe, 0x87, 0xe6, 0x00, 0x3d,
  0xa0, 0xcd, 0x2c, 0xbe, 0xa9, 0x9a, 0x55, 0x3d, 0x4c, 0xaf, 0x93, 0xbc,
  0x3c, 0x12, 0xae, 0xbe, 0x56, 0x18, 0x99, 0x3d, 0xc3, 0x36, 0x04, 0x3c,
  0x54, 0xc9, 0x98, 0xbe, 0x24, 0x17, 0x17, 0xbc, 0x7a, 0xa5, 0xbf, 0x3e,
  0x33, 0xe8, 0x52, 0x3e, 0x02, 0x0c, 0x52, 0x3d, 0xa9, 0x45, 0x84, 0xbe,
  0x6b, 0x4e, 0x0d, 0xbe, 0x75, 0x20, 0xe7, 0xbb, 0x03, 0xde, 0x1c, 0xbe,
  0x1e, 0x2b, 0xf5, 0x3d, 0xc6, 0x59, 0xc0, 0x3d, 0xbd, 0xf8, 0x09, 0xbe,
  0xfe, 0x53, 0xa9, 0x3e, 0x19, 0xb9, 0x2a, 0xbe, 0x31, 0x6c, 0x68, 0xbe,
  0x7b, 0x4e, 0xfc, 0xbd, 0x96, 0x2e, 0x88, 0xbd, 0x95, 0x82, 0xe1, 0x3c,
  0x0f, 0xaa, 0x34, 0x3e, 0x9e, 0xf2, 0xb7, 0x3c, 0xaa, 0xb2, 0x3b, 0x3e,
  0x02, 0x1b, 0x86, 0xbe, 0x20, 0x6f, 0x03, 0xbe, 0x04, 0x8c, 0xe1, 0x3d,
  0xfa, 0xd6, 0x05, 0xbe, 0xf0, 0x7a, 0x53, 0xbe, 0x2d, 0x53, 0x12, 0xbe,
  0xe2, 0x41, 0x77, 0xbd, 0x0c, 0xb6, 0x3c, 0x3f, 0xfc, 0xcf, 0x75, 0xbe,
  0x67, 0x00, 0x21, 0xbe, 0xee, 0x6c, 0x5a, 0xbe, 0x97, 0x88, 0xbf, 0xbe,
  0x1f, 0x85, 0x12, 0xbc, 0xb1, 0x93, 0x6e, 0xbe, 0x90, 0x43, 0x23, 0xbf,
  0xbb, 0xd6, 0x27, 0xbe, 0x3b, 0x75, 0x57, 0x3e, 0x99, 0x40, 0xb4, 0x3d,
  0x4f, 0x9d, 0xae, 0x3e, 0xf4, 0x47, 0x2f, 0xbf, 0x5f, 0x73, 0x13, 0xbf,
  0x34, 0x26, 0x25, 0xba, 0x38, 0xd4, 0x47, 0xbb, 0x3f, 0x04, 0x41, 0xbd,
  0x4e, 0x45, 0x20, 0x3d, 0x4c, 0xd2, 0xb6, 0x3e, 0x71, 0xf2, 0xaf, 0x3d,
  0xa6, 0x50, 0x75, 0xbd, 0x9e, 0x8f, 0x2e, 0xbe, 0x2a, 0x2b, 0x54, 0xbe,
  0x73, 0xfc, 0x1f, 0xbd, 0xc8, 0xb8, 0x50, 0xbe, 0x45, 0xfc, 0x91, 0x3e,
  0x1b, 0xa8, 0x4d, 0xbd, 0xac, 0xfd, 0x5f, 0xbc, 0xc2, 0xc6, 0x64, 0x3d,
  0x67, 0xc9, 0xc0, 0xbe, 0x61, 0x64, 0xf2, 0x3d, 0x73, 0x56, 0xc1, 0xbc,
  0x31, 0xd3, 0xe1, 0xbd, 0x92, 0x4d, 0x79, 0xbd, 0x4e, 0x41, 0x8f, 0x3e,
  0x86, 0x6d, 0x9f, 0x3e, 0x7c, 0xd6, 0xae, 0xbe, 0x78, 0xf3, 0x93, 0x3d,
  0x47, 0x96, 0x30, 0xbe, 0x22, 0x88, 0x20, 0x3e, 0x4b, 0xa2, 0x21, 0xbe,
  0x8e, 0xfe, 0xc6, 0x3d, 0x91, 0x0d, 0xbe, 0xbd, 0x3c, 0x80, 0x0b, 0xbd,
  0x56, 0x80, 0x05, 0x3e, 0x57, 0xc9, 0x5d, 0x3b, 0x57, 0x14, 0xe9, 0xbe,
  0xb5, 0x99, 0xfb, 0xbe, 0x91, 0x18, 0xbb, 0xbd, 0x2a, 0x49, 0x02, 0xbd,
  0x2a, 0xb9, 0x5c, 0x3e, 0x2a, 0x3a, 0x50, 0x3e, 0x09, 0x05, 0x97, 0xbe,
  0x3d, 0x3f, 0x5c, 0xbe, 0x7d, 0xfe, 0x1a, 0x3e, 0xa8, 0x93, 0x63, 0x3e,
  0x68, 0xe3, 0x8a, 0xbe, 0x06, 0x59, 0xe7, 0xbe, 0xd5, 0x90, 0xbf, 0xba,
  0x01, 0x17, 0xb9, 0xbe, 0xc8, 0x55, 0xf4, 0xbd, 0xb4, 0x1d, 0xb2, 0xbe,
  0x29, 0xff, 0x47, 0xbf, 0xde, 0x8e, 0x1a, 0xbf, 0x21, 0x27, 0x15, 0xbe,
  0x2c, 0xc3, 0xc1, 0xbd, 0x74, 0xa3, 0x3a, 0xbe, 0x8f, 0xea, 0x23, 0xbf,
  0x45, 0x2a, 0xc6, 0xbc, 0xe9, 0xd9, 0xd8, 0xbe, 0x19, 0xcf, 0xc0, 0x3e,
  0x58, 0xcc, 0xb0, 0x3d, 0x37, 0x67, 0x8e, 0x3c, 0x58, 0x36, 0xbd, 0xbe,
  0xa3, 0x17, 0xf5, 0x3a, 0xf4, 0xfd, 0x80, 0x3d, 0x4a, 0x52, 0x18, 0xbe,
  0xb2, 0x04, 0x6a, 0xbd, 0xf1, 0x8f, 0xff, 0xbe, 0x3f, 0xbc, 0x67, 0xbe,
  0x98, 0xe2, 0x5f, 0xbc, 0x8f, 0x50, 0x7d, 0xbd, 0x23, 0xdd, 0x9b, 0x3d,
  0x3f, 0x89, 0xa9, 0xbe, 0xf2, 0xd6, 0x97, 0x3d, 0x7d, 0x94, 0x90, 0xbe,
  0x0e, 0x6a, 0x0a, 0x3f, 0x2a, 0xd3, 0x93, 0xbe, 0x00, 0xf0, 0x65, 0xbd,
  0x24, 0x11, 0xba, 0x3d, 0x35, 0xbe, 0x7d, 0x3b, 0xfb, 0x44, 0x64, 0x3d,
  0xf8, 0xa2, 0x78, 0xbe, 0xc9, 0xfb, 0xa0, 0xbe, 0xbc, 0x1b, 0xac, 0x3c,
  0x84, 0xc6, 0x81, 0x3d, 0xf5, 0x5d, 0xa8, 0x3d, 0xc1, 0xaa, 0x81, 0xbd,
  0x7c, 0x23, 0x80, 0x3e, 0x4f, 0xce, 0xbd, 0x3c, 0x4f, 0x15, 0xf0, 0x3d,
  0x57, 0xec, 0x79, 0xbe, 0xdf, 0xec, 0x03, 0xbc, 0x32, 0x05, 0x44, 0xbe,
  0xae, 0x18, 0xca, 0xbe, 0x60, 0x01, 0x1c, 0xbc, 0x28, 0x38, 0x5e, 0x3c,
  0x34, 0xeb, 0x87, 0x3d, 0x5b, 0xe4, 0x88, 0x3b, 0xa5, 0x88, 0xac, 0xbd,
  0x11, 0x56, 0xb6, 0x3d, 0x10, 0xae, 0x7d, 0x3d, 0x10, 0x53, 0x2f, 0xbe,
  0xa1, 0xce, 0x7e, 0xbd, 0x0f, 0x6d, 0x40, 0x3e, 0x69, 0xb4, 0x5a, 0x3d,
  0xd3, 0x81, 0x4b, 0x3e, 0xdf, 0xcd, 0x23, 0x3f, 0x24, 0xe7, 0x2c, 0x3e,
  0x43, 0x78, 0x26, 0x3d, 0xcb, 0xb3, 0x21, 0x3f, 0x52, 0xd1, 0x51, 0xbe,
  0x29, 0x77, 0xb6, 0xbd, 0x64, 0x7e, 0x8b, 0xbe, 0x5c, 0x5d, 0x1d, 0xbe,
  0xe9, 0x9f, 0x85, 0xbe, 0x18, 0x83, 0x08, 0xbf, 0xe5, 0x1b, 0x04, 0x3d,
  0x73, 0xd9, 0x26, 0x3e, 0x8d, 0x32, 0x66, 0xbd, 0xec, 0x4f, 0xb1, 0xbe,
  0x2f, 0xc9, 0x83, 0xbe, 0x02, 0x5c, 0x62, 0x3d, 0x79, 0x90, 0x56, 0x3d,
  0xab, 0xce, 0xe1, 0xbc, 0xeb, 0xd4, 0xfa, 0x3d, 0x12, 0xf3, 0xf7, 0x3e,
  0x56, 0x52, 0xd0, 0xbd, 0x03, 0x5b, 0xfd, 0x3b, 0xf8, 0xbc, 0x66, 0xbe,
  0xba, 0x15, 0xfc, 0xbc, 0x65, 0xbc, 0x5a, 0xbe, 0x41, 0xc0, 0x3a, 0xbe,
  0xf4, 0x12, 0x50, 0x3e, 0x6b, 0xb1, 0x13, 0x3f, 0xbd, 0x2b, 0x09, 0xbc,
  0x78, 0x1c, 0xe5, 0xbd, 0xb1, 0xb2, 0x63, 0xbe, 0x80, 0xcb, 0x14, 0xbe,
  0xd5, 0x31, 0x4d, 0x3e, 0xfa, 0x9a, 0xab, 0xbd, 0x49, 0xdc, 0x36, 0xbb,
  0xee, 0xd2, 0xde, 0x3e, 0x4c, 0x05, 0x9c, 0x3c, 0x2e, 0x1e, 0x7c, 0xbd,
  0x83, 0x51, 0xdd, 0x3c, 0xcf, 0x4a, 0x71, 0x3c, 0x4b, 0xb0, 0x3d, 0xbd,
  0x6d, 0x62, 0xef, 0xbd, 0x44, 0xb9, 0x07, 0x3e, 0xc9, 0xec, 0xcc, 0x3e,
  0x04, 0xbb, 0x3c, 0x3d, 0x81, 0xe3, 0x0c, 0x3e, 0x28, 0xed, 0x66, 0xbe,
  0x47, 0x83, 0x87, 0xbe, 0x37, 0x3d, 0xfb, 0xbc, 0x85, 0x1b, 0xd3, 0xbd,
  0x6e, 0x1f, 0x24, 0x3d, 0x78, 0x81, 0x85, 0x3e, 0x87, 0x69, 0xe8, 0x3c,
  0x77, 0xf1, 0x12, 0xbd, 0x9c, 0x92, 0x0a, 0xbc, 0x4e, 0xc2, 0xbb, 0xbd,
  0xea, 0x52, 0xb1, 0xbc, 0xfb, 0x88, 0x13, 0x3d, 0x98, 0x2c, 0x17, 0x3e,
  0x97, 0x59, 0xb7, 0x3e, 0x33, 0xd4, 0x62, 0x3d, 0xd1, 0xc3, 0xa0, 0x3d,
  0xd9, 0xf4, 0x24, 0xbe, 0x57, 0x9d, 0x9d, 0xbd, 0xba, 0x68, 0x38, 0x3e,
  0x3e, 0x22, 0x16, 0xbe, 0x15, 0x8a, 0x0f, 0x3c, 0x19, 0xdb, 0x3f, 0x3e,
  0x5e, 0x69, 0xdc, 0xbc, 0x29, 0xcd, 0x00, 0xbe, 0x8d, 0x8f, 0x87, 0x3d,
  0x16, 0xa9, 0x89, 0xbd, 0x5f, 0xd1, 0x6c, 0xbd, 0x5a, 0x28, 0x33, 0xbe,
  0xa8, 0x6b, 0xa7, 0x3e, 0xf4, 0x8d, 0x9c, 0x3e, 0xa0, 0xb6, 0x36, 0x3d,
  0xa2, 0x69, 0x67, 0x3d, 0x2c, 0xca, 0xa2, 0xbd, 0x15, 0x5e, 0x6a, 0xbe,
  0x2b, 0x3b, 0x98, 0xbe, 0x6a, 0x81, 0xa0, 0x3a, 0x55, 0x60, 0x8b, 0x3d,
  0xa4, 0xbd, 0x0f, 0x3e, 0xc2, 0x8d, 0x00, 0xbe, 0x18, 0x6d, 0x4d, 0x3d,
  0x2d, 0xd6, 0xa2, 0x3c, 0xbd, 0x1f, 0x1e, 0x3c, 0xb2, 0x36, 0x9e, 0xbe,
  0x89, 0x3a, 0xb1, 0xbe, 0xab, 0xfb, 0x5d, 0x3e, 0xbb, 0xa7, 0xc7, 0x3e,
  0x59, 0xdf, 0x89, 0x3b, 0x17, 0x7d, 0x00, 0xbe, 0xb4, 0xe0, 0xad, 0xbe,
  0x9f, 0x48, 0xd6, 0xbe, 0xd1, 0xf7, 0xca, 0xbd, 0xfb, 0xfd, 0xa6, 0x3e,
  0x2d, 0x7a, 0x28, 0xbb, 0x0e, 0x24, 0xc9, 0x3e, 0x9c, 0xa3, 0xc7, 0x3d,
  0x2e, 0x55, 0xe0, 0x3b, 0x6d, 0xfb, 0x9c, 0xbd, 0x1e, 0x8c, 0x7e, 0xbc,
  0x41, 0x57, 0x2e, 0x3d, 0x00, 0xcf, 0x6c, 0xbe, 0x6d, 0x1c, 0x6c, 0xbd,
  0x22, 0xff, 0x8f, 0x3e, 0x7b, 0x2b, 0x0f, 0x3c, 0x4c, 0x99, 0x87, 0x3d,
  0x07, 0x51, 0x5a, 0xbe, 0x02, 0x16, 0x07, 0xbe, 0x75, 0x8d, 0xba, 0xbd,
  0x29, 0x18, 0xcb, 0xbe, 0xb6, 0x67, 0x62, 0xbe, 0x54, 0x6e, 0xf0, 0xbd,
  0x5a, 0x62, 0x24, 0x3e, 0xe7, 0x54, 0x00, 0x3e, 0xc1, 0x03, 0x34, 0xbd,
  0xe6, 0x67, 0xa4, 0xbe, 0x87, 0x40, 0x89, 0xbe, 0x88, 0x93, 0xbd, 0xbd,
  0x42, 0x3d, 0xc2, 0x3d, 0x43, 0xb3, 0xf3, 0x3d, 0x29, 0xaa, 0xd0, 0x3a,
  0xa8, 0x68, 0x88, 0x3e, 0xa0, 0xd4, 0xe2, 0x3d, 0x81, 0x11, 0xc4, 0x3d,
  0x63, 0xe6, 0x36, 0x3e, 0x2c, 0xab, 0xa1, 0x3d, 0xd0, 0x00, 0x53, 0x3e,
  0x2c, 0x70, 0x73, 0xbd, 0x3e, 0x1b, 0x3b, 0xbd, 0xfa, 0x53, 0x95, 0x3d,
  0xf9, 0xf0, 0xcd, 0x3d, 0xf8, 0x83, 0xd8, 0xbc, 0x01, 0x41, 0x8a, 0xbe,
  0x25, 0x49, 0x1b, 0xbc, 0x97, 0xec, 0x5f, 0xbe, 0x43, 0xa7, 0x10, 0x3e,
  0x18, 0x73, 0x0e, 0xbe, 0x72, 0x0d, 0xb8, 0x3d, 0x02, 0xee, 0xfe, 0x3d,
  0x25, 0x63, 0x71, 0xbe, 0x7f, 0xcf, 0xe2, 0x3c, 0xcb, 0x43, 0xc8, 0xbc,
  0xe7, 0xe0, 0x86, 0x3d, 0x15, 0x7e, 0x91, 0xbd, 0xd3, 0x47, 0x87, 0xbd,
  0x70, 0xe1, 0x18, 0xbe, 0x91, 0x19, 0x35, 0xbe, 0x3a, 0x61, 0x79, 0x3d,
  0x43, 0x1a, 0x57, 0x3e, 0xd7, 0xa5, 0x5b, 0xbe, 0x16, 0xf3, 0x62, 0xbd,
  0xc2, 0x8c, 0x7e, 0xbe, 0xef, 0x4a, 0xde, 0xbc, 0xfd, 0x8f, 0xa1, 0x3e,
  0x2a, 0xbf, 0xab, 0x3d, 0x2c, 0x4f, 0xbc, 0xbe, 0x74, 0x31, 0xde, 0x3c,
  0x23, 0x69, 0x33, 0xbe, 0xac, 0x9d, 0x7a, 0x3e, 0xd5, 0x10, 0x65, 0xbe,
  0xb2, 0xb1, 0xa9, 0xbe, 0x2b, 0x5b, 0x78, 0xbe, 0x37, 0x26, 0xd6, 0xbe,
  0xbb, 0xeb, 0xe5, 0x3d, 0xf5, 0xcb, 0xe3, 0xbd, 0x6b, 0x93, 0x2e, 0xbe,
  0x6a, 0x73, 0xac, 0xbc, 0x40, 0x3c, 0x30, 0x3d, 0xe5, 0xdf, 0x4c, 0xbe,
  0x03, 0xee, 0x3e, 0x3d, 0x1c, 0xd3, 0x9b, 0xbe, 0x8d, 0xa9, 0x05, 0xbe,
  0xd5, 0xa3, 0x8a, 0xbe, 0x76, 0x4c, 0x7d, 0x3e, 0xaa, 0x6f, 0x07, 0xbd,
  0xbb, 0x04, 0x85, 0x3d, 0xeb, 0x6b, 0x21, 0xbe, 0xea, 0xfd, 0x23, 0xbe,
  0x49, 0xf0, 0x1d, 0x3e, 0xda, 0xb0, 0xd5, 0x3c, 0xbf, 0xa6, 0x44, 0x3d,
  0x1a, 0xb4, 0x14, 0xbd, 0xc2, 0xb0, 0x09, 0xbe, 0x69, 0xc8, 0x03, 0xbe,
  0xde, 0xb1, 0xfa, 0xbd, 0xa6, 0xf6, 0x7a, 0x3d, 0x27, 0x04, 0x1b, 0xbe,
  0x82, 0x5e, 0xc5, 0xbc, 0xbe, 0xa5, 0x00, 0x3e, 0xcb, 0x79, 0x85, 0x3d,
  0xc4, 0xad, 0x13, 0xbe, 0x3a, 0x39, 0x69, 0xbe, 0xc6, 0xe0, 0xe7, 0xbb,
  0x54, 0x78, 0xc6, 0x3c, 0x17, 0xaa, 0x0c, 0xbe, 0xf5, 0xe7, 0x18, 0xbd,
  0x51, 0x54, 0x37, 0xbc, 0x57, 0x89, 0x4d, 0xbe, 0x51, 0xf0, 0x02, 0xbe,
  0x82, 0x46, 0x96, 0xbe, 0xf3, 0x19, 0x22, 0xbe, 0x71, 0x12, 0xa9, 0x3d,
  0xc3, 0x0a, 0xb2, 0x3d, 0xde, 0x8f, 0x58, 0xbe, 0xa5, 0xb3, 0x1e, 0xbc,
  0x6e, 0x99, 0x4f, 0xbe, 0xfd, 0x42, 0xaf, 0x3c, 0x11, 0xaf, 0x26, 0xbd,
  0x55, 0x07, 0x61, 0xbe, 0x62, 0x72, 0xc3, 0xbe, 0xcd, 0x9e, 0x4b, 0xbe,
  0x71, 0xec, 0xb3, 0xbd, 0x55, 0x89, 0x49, 0x3e, 0x38, 0x20, 0x26, 0xbe,
  0xb2, 0xfd, 0x9e, 0x3d, 0x60, 0xfc, 0xf8, 0xbd, 0x4d, 0xa1, 0xe7, 0xbd,
  0x3a, 0x86, 0xd8, 0xbd, 0xa2, 0xbe, 0x17, 0xbd, 0x57, 0xa6, 0x12, 0xbe,
  0x96, 0xcd, 0x5f, 0xbd, 0x7a, 0x99, 0x7b, 0xbe, 0x0b, 0x16, 0xfe, 0xbe,
  0xd4, 0x41, 0x7f, 0x3c, 0x1e, 0x62, 0x83, 0x3e, 0xcc, 0x03, 0xb0, 0x3c,
  0xb5, 0xf5, 0x75, 0x3e, 0xc4, 0x4a, 0xfb, 0xbe, 0x3f, 0x51, 0x16, 0xbe,
  0x9c, 0xba, 0x81, 0x3d, 0xe3, 0xb7, 0x4a, 0x3d, 0x65, 0xf4, 0x20, 0xbe,
  0x94, 0xd5, 0x38, 0x3d, 0x5d, 0xf8, 0xb2, 0x3e, 0x30, 0xac, 0x1e, 0x3d,
  0x11, 0x8b, 0x4e, 0xbc, 0xd0, 0x9d, 0xd8, 0x3d, 0xcf, 0x17, 0xec, 0xbe,
  0x8e, 0x66, 0x05, 0x3e, 0xdb, 0x6c, 0x0b, 0x3d, 0xb8, 0xbe, 0x56, 0x3e,
  0x86, 0xa6, 0x74, 0xbe, 0x24, 0xe4, 0x35, 0x3d, 0xe8, 0xdd, 0x53, 0x3e,
  0xa1, 0xdf, 0xfc, 0xbd, 0x6d, 0x39, 0x35, 0xbe, 0xa1, 0x78, 0x85, 0xbe,
  0xae, 0xd8, 0xac, 0xbe, 0xb4, 0x62, 0x01, 0xbd, 0x83, 0x82, 0x98, 0x3e,
  0xa1, 0x7a, 0x28, 0x3e, 0x8e, 0xfc, 0xa1, 0xbe, 0xf8, 0xb5, 0xb7, 0x3d,
  0xc7, 0x28, 0x75, 0xbe, 0x28, 0xb8, 0x8d, 0x3e, 0xbd, 0x4c, 0x68, 0xbe,
  0x8c, 0x18, 0xb0, 0xbe, 0x44, 0xad, 0x61, 0xbc, 0x32, 0xba, 0x23, 0xbc,
  0x15, 0x9c, 0x49, 0x3e, 0x32, 0x89, 0x60, 0xbe, 0xbb, 0x63, 0xb5, 0xbe,
  0x95, 0xb3, 0x79, 0xbe, 0xe6, 0x55, 0xf2, 0xbe, 0x62, 0x8e, 0x55, 0xbc,
  0x88, 0xe7, 0x2d, 0x3e, 0x2a, 0x8f, 0xc6, 0xbe, 0x07, 0xe0, 0x10, 0xbf,
  0xc8, 0x16, 0x13, 0xbd, 0x90, 0xb1, 0x92, 0xbe, 0x89, 0x52, 0xcb, 0xbc,
  0xa7, 0xa9, 0x34, 0xbe, 0x81, 0xce, 0x0f, 0xbf, 0x8e, 0xf9, 0xc7, 0xbd,
  0x2e, 0x2d, 0xfb, 0xbe, 0xfc, 0xe4, 0x49, 0xbd, 0x79, 0xdd, 0x59, 0xbd,
  0x30, 0xf1, 0x1c, 0xbf, 0x10, 0x0b, 0x09, 0xbf, 0xfa, 0x83, 0xd6, 0xbe,
  0x89, 0x77, 0x1c, 0xbd, 0xd0, 0x8a, 0x9d, 0xbe, 0xb9, 0x90, 0xfe, 0xbe,
  0xe8, 0x8f, 0x1f, 0xbf, 0x85, 0xfe, 0x2b, 0xbe, 0x88, 0x8b, 0xcb, 0x3d,
  0x90, 0x51, 0x08, 0xbd, 0x64, 0x43, 0x21, 0x3d, 0xb1, 0x23, 0x36, 0xbf,
  0xaf, 0x57, 0x44, 0xbe, 0x71, 0xe9, 0xfb, 0xbe, 0x76, 0x12, 0x44, 0xbd,
  0x16, 0x8d, 0xee, 0xbc, 0x61, 0x79, 0xf2, 0xbe, 0x63, 0x6a, 0xdf, 0xbe,
  0xeb, 0x6d, 0x03, 0xbf, 0x83, 0x0b, 0x5f, 0xbd, 0xa0, 0x36, 0x9e, 0xbe,
  0xab, 0xba, 0x8a, 0xbe, 0xdc, 0x51, 0xb1, 0x3d, 0x67, 0xbf, 0x83, 0xbe,
  0x6e, 0xad, 0xc7, 0x3e, 0x75, 0x90, 0xbf, 0xbd, 0x6f, 0xdb, 0xf5, 0xbd,
  0x9d, 0x23, 0x17, 0x3d, 0x4a, 0x3e, 0x9f, 0x3d, 0x77, 0x97, 0x7e, 0x3e,
  0xff, 0x59, 0x1c, 0xbe, 0xda, 0xa0, 0x77, 0xbc, 0xee, 0x53, 0x0a, 0x3c,
  0x40, 0xfa, 0x12, 0x3c, 0x9a, 0x53, 0x1f, 0x3e, 0x7e, 0xe8, 0xeb, 0xbc,
  0x6a, 0x61, 0x88, 0x3e, 0xa3, 0xa0, 0x96, 0xbd, 0x6e, 0x8d, 0x3e, 0x3d,
  0xbc, 0x0f, 0x60, 0xbe, 0xb1, 0x5b, 0x27, 0xbd, 0xb7, 0xbf, 0xdb, 0xbd,
  0xf5, 0xd8, 0x23, 0xbe, 0x27, 0xb6, 0x16, 0x3c, 0x6d, 0xc4, 0x2c, 0xbd,
  0x05, 0x88, 0xeb, 0x3d, 0x32, 0xe3, 0x58, 0xbd, 0x10, 0x4d, 0x2e, 0xbe,
  0x08, 0x76, 0xfc, 0x3d, 0x62, 0xcf, 0x03, 0x3e, 0x0b, 0xb2, 0x0e, 0xbf,
  0xd8, 0x32, 0xb2, 0x3c, 0xba, 0x68, 0x14, 0x3e, 0x85, 0xe6, 0x86, 0x3c,
  0x5b, 0x55, 0xa6, 0x3d, 0x89, 0xb2, 0x43, 0xbd, 0xb6, 0x92, 0x73, 0xbd,
  0x5f, 0x0d, 0xb3, 0xbc, 0xfc, 0x01, 0x28, 0x3e, 0x14, 0xbc, 0x97, 0xbd,
  0xc7, 0x46, 0xe2, 0xbe, 0x0a, 0xa7, 0xc8, 0xbd, 0xf0, 0x07, 0x91, 0x3e,
  0x7f, 0xd5, 0xe9, 0x3e, 0x7a, 0xfc, 0xa8, 0x3d, 0xfe, 0xc4, 0xe3, 0xbe,
  0xf8, 0x30, 0xb0, 0xbe, 0x48, 0x91, 0x66, 0x3d, 0x97, 0xb6, 0xd8, 0xbd,
  0xb6, 0x63, 0x89, 0x3d, 0x23, 0x3e, 0xdb, 0xbc, 0xf1, 0xbb, 0x0e, 0x3f,
  0x65, 0x7f, 0x04, 0xbb, 0x5e, 0x00, 0x38, 0xbd, 0xcf, 0x70, 0xde, 0xbd,
  0x25, 0x88, 0x83, 0x3d, 0x20, 0x49, 0x0e, 0xbe, 0x83, 0x3f, 0xcd, 0x3d,
  0xd6, 0x29, 0xca, 0xbd, 0xdc, 0x95, 0x8b, 0x3e, 0x7e, 0x66, 0x6e, 0x3e,
  0x50, 0xf7, 0xd3, 0xbd, 0xa5, 0x3b, 0x9c, 0x3e, 0xa0, 0xa4, 0xf8, 0x3d,
  0x3a, 0xb4, 0x94, 0xbd, 0xa5, 0x56, 0xb4, 0x3c, 0x8b, 0xd9, 0x39, 0x3e,
  0x38, 0xbf, 0x81, 0x3d, 0xd2, 0xb7, 0x4f, 0x3e, 0x13, 0x77, 0xd8, 0x3c,
  0x9d, 0x00, 0x2d, 0xbd, 0x5b, 0x0c, 0x4d, 0x3e, 0xe9, 0x52, 0xc0, 0xbd,
  0x5f, 0xd9, 0x74, 0x3e, 0x64, 0x5b, 0xd4, 0xbd, 0x94, 0x71, 0x89, 0x3e,
  0x23, 0x57, 0xf0, 0x3e, 0x31, 0x46, 0x8d, 0xbd, 0x2c, 0xaf, 0x89, 0x3e,
  0x8d, 0xa5, 0xe5, 0xbd, 0xee, 0x20, 0x28, 0x3e, 0x8a, 0x3e, 0x9a, 0x3e,
  0x46, 0xe9, 0xa0, 0x3e, 0x39, 0x8d, 0x97, 0x3e, 0x44, 0x78, 0x84, 0x3e,
  0xe5, 0xc0, 0x4d, 0x3e, 0xf4, 0x1b, 0xfc, 0x3d, 0x76, 0x92, 0x8d, 0x3e,
  0xcc, 0xf7, 0x70, 0xbe, 0x7b, 0xa9, 0x87, 0x3e, 0x2f, 0x04, 0x2e, 0x3e,
  0x3f, 0x07, 0x20, 0x3e, 0x7e, 0x81, 0xb4, 0x3e, 0x6d, 0xed, 0xeb, 0xbd,
  0x54, 0x16, 0xf5, 0x3c, 0xd4, 0xf2, 0x9d, 0xbd, 0x9e, 0x57, 0xd8, 0x3c,
  0xde, 0xda, 0xe1, 0x3e, 0xd8, 0x50, 0x32, 0x3e, 0xec, 0xfc, 0x9a, 0x3e,
  0x10, 0x95, 0xf6, 0xbc, 0x53, 0x1f, 0x22, 0x3d, 0xfe, 0x1f, 0xd7, 0xbd,
  0xa9, 0x0a, 0x0b, 0x3e, 0xdb, 0x21, 0xb5, 0xbe, 0x03, 0x08, 0x86, 0x3d,
  0x0d, 0xa5, 0x13, 0x3e, 0xfe, 0xf2, 0x8d, 0x3e, 0xee, 0x99, 0xec, 0x3e,
  0x0b, 0xed, 0x8b, 0xbe, 0x96, 0x96, 0x34, 0x3e, 0xd1, 0x2c, 0xa8, 0x3c,
  0xee, 0x6e, 0x88, 0x3c, 0xe4, 0x98, 0x24, 0x3f, 0x94, 0xfe, 0x34, 0xbd,
  0x7b, 0x00, 0x6e, 0xbe, 0xb3, 0xba, 0x56, 0x3c, 0x1a, 0xe0, 0x57, 0xbe,
  0x14, 0xd3, 0xf0, 0x3c, 0x24, 0x94, 0x55, 0xbe, 0x37, 0x8a, 0x78, 0xbe,
  0x7d, 0x00, 0x53, 0x3e, 0xfb, 0x17, 0x6c, 0xbe, 0xdf, 0xca, 0x32, 0xbe,
  0xb9, 0xd9, 0x08, 0xbf, 0x19, 0xea, 0xb8, 0xbe, 0x70, 0x05, 0xa3, 0x3d,
  0x42, 0xd1, 0xa9, 0xbd, 0x6c, 0x80, 0x51, 0x3e, 0x22, 0x59, 0x2a, 0x3d,
  0x33, 0x1a, 0xb4, 0x3d, 0x61, 0x7c, 0xe4, 0x3d, 0xdb, 0xf8, 0xde, 0xbd,
  0xd6, 0xeb, 0x4d, 0xbd, 0x08, 0xdf, 0x4d, 0x3d, 0xdf, 0x2a, 0x36, 0xbd,
  0x26, 0x41, 0x21, 0xbe, 0x7b, 0x18, 0x01, 0xbe, 0x87, 0x18, 0x1a, 0xbd,
  0x31, 0x7e, 0xc0, 0xbe, 0x29, 0xf9, 0x0f, 0x3e, 0x78, 0x51, 0xcc, 0xbd,
  0x4a, 0xa4, 0x18, 0xbe, 0xe9, 0x0e, 0x49, 0xbd, 0xad, 0x9e, 0x48, 0xbe,
  0x42, 0x19, 0x00, 0x3c, 0x8a, 0xe5, 0x47, 0x3d, 0x11, 0xbc, 0xe5, 0x3e,
  0x88, 0x0c, 0xfe, 0x3c, 0x85, 0x87, 0x4e, 0xbe, 0x17, 0x55, 0xc2, 0x3e,
  0xd6, 0x27, 0x05, 0xbe, 0xcb, 0x0d, 0x87, 0xbd, 0x7f, 0xbb, 0x83, 0xbe,
  0xb4, 0x53, 0xe0, 0xbe, 0xaa, 0xf1, 0x69, 0xbe, 0xb9, 0x8f, 0x5c, 0xbe,
  0x8d, 0x84, 0x77, 0x3d, 0x56, 0xea, 0x2b, 0x3e, 0x72, 0x18, 0x81, 0xbd,
  0xfe, 0x2b, 0xce, 0xbd, 0x7f, 0xff, 0x15, 0xbe, 0xf2, 0xb7, 0x06, 0xbe,
  0x15, 0xfe, 0x15, 0x3e, 0x78, 0xc4, 0x82, 0x3d, 0x8b, 0x96, 0x06, 0xbd,
  0xa8, 0x3c, 0x2a, 0x3e, 0xf5, 0x4f, 0xb3, 0xbd, 0x8e, 0x93, 0x89, 0xbd,
  0x8c, 0xd1, 0x0f, 0x3d, 0x9c, 0x9d, 0xaa, 0xbe, 0x8c, 0x14, 0x16, 0x3d,
  0x9f, 0x29, 0x99, 0x3d, 0x35, 0x3f, 0x57, 0x3e, 0x2e, 0xa5, 0xc5, 0x3e,
  0xf1, 0x16, 0xa4, 0x3d, 0x61, 0xfe, 0xc7, 0xbd, 0x8a, 0xee, 0x38, 0xbe,
  0x05, 0x74, 0xec, 0x3d, 0x9d, 0x38, 0xca, 0xbd, 0xf2, 0xa8, 0x0c, 0xbe,
  0xbd, 0x19, 0xc1, 0xbc, 0xb4, 0x58, 0x59, 0x3e, 0x5e, 0x5f, 0x75, 0x3d,
  0x98, 0xda, 0x0d, 0x3e, 0xed, 0xa6, 0x1a, 0xbe, 0x86, 0x58, 0x0e, 0xbe,
  0x59, 0x0a, 0xea, 0xbd, 0x95, 0xb2, 0xdd, 0xbc, 0x40, 0xfc, 0x7b, 0x3e,
  0x3a, 0x8c, 0xbf, 0x3e, 0xf8, 0x2c, 0x1b, 0x3e, 0xa4, 0xc1, 0x43, 0xbd,
  0x3e, 0x7d, 0x1e, 0xbe, 0x03, 0x4c, 0xb0, 0x3d, 0x8e, 0xc2, 0x29, 0x3c,
  0x46, 0x20, 0xaa, 0xbd, 0x20, 0x0b, 0x14, 0xbd, 0x51, 0x85, 0xdb, 0x3e,
  0x94, 0x64, 0x27, 0x3c, 0x26, 0x62, 0x6e, 0x3d, 0x54, 0x09, 0x94, 0xbd,
  0x26, 0x77, 0x38, 0xbe, 0x1c, 0x96, 0xd8, 0x3d, 0xb3, 0xa3, 0x63, 0x3d,
  0xb7, 0x3a, 0x77, 0x3e, 0x07, 0x42, 0x39, 0x3e, 0x03, 0x67, 0x85, 0x3d,
  0x42, 0xfe, 0x28, 0x3a, 0xe8, 0xc1, 0x87, 0x3d, 0x1e, 0x8b, 0x62, 0x3d,
  0x36, 0x0d, 0x1b, 0x3e, 0xdc, 0x99, 0xc7, 0xbe, 0xb0, 0x14, 0x43, 0xbe,
  0xff, 0xdd, 0x1e, 0x3f, 0xf6, 0x34, 0xb6, 0xbc, 0xc1, 0x2d, 0x2e, 0x3d,
  0x49, 0x20, 0x55, 0xbe, 0x99, 0x11, 0xc9, 0xbe, 0x3e, 0x47, 0xa3, 0xbc,
  0xeb, 0x11, 0xc2, 0x3d, 0x91, 0xe4, 0x3b, 0x3e, 0x7a, 0xc5, 0x8c, 0x3b,
  0xcc, 0xd7, 0x3c, 0x3c, 0x3d, 0x14, 0x46, 0x3d, 0x83, 0x11, 0x0c, 0xbd,
  0x42, 0xa7, 0xe0, 0xbd, 0x43, 0x6c, 0xed, 0xbd, 0x0d, 0x8f, 0x81, 0xbb,
  0x5e, 0x6d, 0x4b, 0xbd, 0x9e, 0xb2, 0xae, 0x3e, 0x84, 0x7a, 0x8a, 0xbe,
  0x1d, 0x9c, 0xc9, 0x3c, 0xe9, 0x1e, 0x94, 0x3c, 0xa6, 0x38, 0xed, 0xbd,
  0xf4, 0x29, 0x14, 0xbd, 0xc6, 0x83, 0x42, 0xbd, 0x72, 0xc9, 0x33, 0x3e,
  0x13, 0xb2, 0x1f, 0x3e, 0x99, 0x6c, 0x65, 0x3d, 0xc5, 0x1c, 0x93, 0x3d,
  0xe7, 0xa9, 0x23, 0xbe, 0x1f, 0x9f, 0x8a, 0xbe, 0xb8, 0x9a, 0x8e, 0x3e,
  0xa1, 0x77, 0xbc, 0x3e, 0x38, 0x9b, 0x95, 0x3c, 0x48, 0x83, 0x21, 0x3f,
  0x8e, 0xe9, 0x34, 0xbe, 0x86, 0x7d, 0x04, 0xbd, 0x03, 0x9f, 0x96, 0xbc,
  0x3f, 0x5e, 0xd0, 0xbd, 0x95, 0xcb, 0x16, 0x3e, 0xe9, 0x29, 0xab, 0xbe,
  0x46, 0x88, 0xe9, 0x3d, 0xc2, 0xa2, 0x8a, 0x3e, 0x08, 0xa8, 0xac, 0xbd,
  0x19, 0x14, 0x06, 0xbc, 0x8a, 0x9d, 0x59, 0xbe, 0x18, 0xc8, 0xf4, 0xbd,
  0x23, 0x39, 0xb6, 0x3e, 0xc8, 0x25, 0x51, 0x3d, 0x59, 0x9a, 0x4d, 0xbe,
  0x8f, 0x21, 0x73, 0x3c, 0xa2, 0x00, 0x2c, 0xbe, 0x79, 0xaf, 0x87, 0x3b,
  0xa8, 0xcd, 0x67, 0xbd, 0xc5, 0x14, 0xe1, 0xbc, 0x37, 0x89, 0x9d, 0xbd,
  0x6e, 0x9e, 0x04, 0x3e, 0x59, 0x7d, 0xeb, 0x3c, 0xfb, 0x8d, 0x80, 0x3d,
  0xc8, 0xf9, 0x79, 0xbe, 0xfa, 0x5f, 0x09, 0x3d, 0x09, 0x19, 0x54, 0xbe,
  0x58, 0x50, 0x24, 0xbe, 0x78, 0xf9, 0xe0, 0xbd, 0x8d, 0x0b, 0xc6, 0xbd,
  0x5e, 0xa9, 0x3e, 0x3e, 0x70, 0x1c, 0x6c, 0xbd, 0x8c, 0x7f, 0x63, 0xbd,
  0xca, 0xe9, 0x30, 0x3e, 0xd2, 0xaf, 0x23, 0x3d, 0x40, 0x70, 0xf0, 0x3d,
  0xe4, 0x65, 0xa9, 0x3e, 0xef, 0xba, 0x1c, 0xbc, 0x2e, 0x39, 0xa2, 0x3e,
  0xca, 0x18, 0xfd, 0x3d, 0x68, 0x0d, 0x29, 0xbe, 0x5a, 0xcb, 0x70, 0x3d,
  0xd2, 0xc5, 0xc3, 0xbd, 0xc3, 0x18, 0x37, 0xbd, 0xa6, 0xcd, 0xe8, 0x3d,
  0x9f, 0x6d, 0xad, 0x3d, 0xf4, 0xdd, 0x36, 0x3c, 0x3f, 0x09, 0x82, 0x3e,
  0xe7, 0xf5, 0x86, 0x3c, 0x18, 0x1f, 0xaa, 0x3e, 0x59, 0xb9, 0x98, 0x3e,
  0x00, 0xf3, 0x41, 0x3d, 0x09, 0x67, 0x79, 0xbd, 0x89, 0x52, 0x2f, 0x3e,
  0x1b, 0x5e, 0xa1, 0x3e, 0x20, 0x07, 0x8c, 0x3e, 0xbf, 0x25, 0x34, 0xbe,
  0xe5, 0x9e, 0x0a, 0xbe, 0xae, 0xf0, 0xd5, 0xbd, 0xb8, 0xb5, 0x8a, 0x3d,
  0x46, 0x96, 0x1d, 0x3c, 0xde, 0x8e, 0x6d, 0xbe, 0x79, 0x12, 0x6e, 0xbc,
  0xa7, 0x09, 0xad, 0xbd, 0xed, 0x3c, 0xd8, 0xbd, 0x51, 0xeb, 0x20, 0x3e,
  0x29, 0xdd, 0x23, 0x3e, 0x78, 0xfc, 0x01, 0xbd, 0x80, 0x73, 0x70, 0x3b,
  0x93, 0x94, 0x74, 0x3d, 0x0c, 0x45, 0x7c, 0x3e, 0x89, 0x50, 0x2b, 0xbd,
  0x78, 0x68, 0x06, 0xbe, 0x8c, 0x55, 0x85, 0xbc, 0xb4, 0x30, 0xf4, 0x3c,
  0x9a, 0x04, 0x36, 0x3b, 0xad, 0x30, 0x42, 0x3e, 0xd2, 0x35, 0x8b, 0x3d,
  0x4b, 0x72, 0x10, 0xbe, 0xcf, 0xa7, 0x89, 0x3e, 0x3b, 0xbf, 0x82, 0x3c,
  0xcb, 0xc2, 0x6d, 0x3a, 0x12, 0xa6, 0x25, 0xbc, 0x28, 0xf5, 0x79, 0xbe,
  0x26, 0x32, 0x24, 0xbc, 0x03, 0x9e, 0x64, 0x3e, 0xb6, 0xf0, 0x8e, 0x3e,
  0x75, 0x80, 0x49, 0x3e, 0xfe, 0x78, 0x43, 0xbd, 0xd6, 0x5e, 0xd5, 0x3d,
  0x79, 0x5e, 0x17, 0xbd, 0x59, 0xca, 0xd4, 0xbd, 0x4a, 0xac, 0x98, 0x3d,
  0x6b, 0x3d, 0x1d, 0xbe, 0x96, 0xdd, 0x88, 0xbe, 0x90, 0xe4, 0x46, 0x3e,
  0x16, 0x97, 0x82, 0xbe, 0xba, 0x2d, 0x66, 0x3d, 0x8f, 0xeb, 0x67, 0x3d,
  0xd4, 0x23, 0x9c, 0xbe, 0x1f, 0x68, 0x62, 0x3b, 0xd6, 0x41, 0xe0, 0x3c,
  0x54, 0x1c, 0x73, 0x3e, 0xb1, 0x94, 0xb8, 0xbd, 0xc1, 0x52, 0xfd, 0xbd,
  0xa5, 0xff, 0x41, 0xbe, 0x3b, 0xab, 0xc0, 0x3b, 0x5a, 0x58, 0x5c, 0xbe,
  0x89, 0x8d, 0x03, 0xbe, 0xe6, 0xd2, 0x82, 0xbe, 0xd4, 0xd0, 0x8c, 0xbd,
  0xf2, 0x11, 0x81, 0x3d, 0x1a, 0x06, 0xa8, 0xbc, 0x92, 0x2a, 0xa6, 0x3e,
  0xa7, 0x28, 0x00, 0x3e, 0xd2, 0x1c, 0x84, 0xbe, 0xeb, 0x09, 0xc6, 0xbd,
  0x9a, 0x59, 0x50, 0xbd, 0xb2, 0x27, 0x06, 0x3e, 0x30, 0xce, 0xc6, 0xbd,
  0xea, 0x20, 0xc6, 0xbe, 0x7a, 0x7a, 0x39, 0xbe, 0x6e, 0x45, 0x19, 0xbe,
  0x3d, 0x41, 0x37, 0xbe, 0x90, 0xe0, 0xc8, 0xbd, 0x6e, 0x6a, 0xfb, 0xbe,
  0x94, 0x74, 0x37, 0xbf, 0xcd, 0x00, 0x64, 0xbe, 0xfa, 0x39, 0x1a, 0xbf,
  0x46, 0xdf, 0x4c, 0xbe, 0xdb, 0xd9, 0x4c, 0xbe, 0xb0, 0x3b, 0x2d, 0xbf,
  0x91, 0x8a, 0x16, 0xbe, 0x24, 0x29, 0xab, 0xbd, 0xfd, 0xee, 0x88, 0xbe,
  0xe4, 0x7e, 0xbe, 0xbe, 0xba, 0x7f, 0xcf, 0xbd, 0x3c, 0x38, 0xfb, 0xbd,
  0x5d, 0x05, 0x62, 0xbe, 0xc8, 0xf0, 0x84, 0xbc, 0xbd, 0x10, 0xfd, 0xbd,
  0x8d, 0x7a, 0x10, 0x3f, 0xf8, 0xe8, 0x33, 0xbd, 0x7c, 0xb6, 0xec, 0xbd,
  0x49, 0x50, 0x12, 0xbe, 0x05, 0x1f, 0xab, 0xbd, 0xd1, 0x70, 0x4c, 0xbe,
  0xf1, 0x6f, 0x1e, 0xbf, 0x58, 0x08, 0xb0, 0xbc, 0xe8, 0x13, 0x2d, 0xbe,
  0xd7, 0x27, 0x44, 0xbe, 0x11, 0xe1, 0x93, 0xbe, 0xbb, 0xc4, 0x37, 0xbd,
  0xce, 0x1e, 0x18, 0xbe, 0x20, 0x82, 0x55, 0xbe, 0xaa, 0xbf, 0xaf, 0xbe,
  0x9d, 0x9d, 0xff, 0xbd, 0x09, 0x01, 0x01, 0x3f, 0x3b, 0xe2, 0x05, 0xbc,
  0x86, 0x5e, 0xba, 0xbd, 0x1c, 0x21, 0x82, 0xbd, 0x54, 0x64, 0x37, 0x3b,
  0x09, 0x44, 0x65, 0xbe, 0xee, 0xb7, 0xa6, 0xbe, 0xb4, 0x78, 0x68, 0xbe,
  0x6f, 0xf2, 0x9f, 0xbe, 0xb4, 0xef, 0x83, 0xbe, 0x74, 0x74, 0x4d, 0xbe,
  0xa0, 0x16, 0xe1, 0xbc, 0x4e, 0x00, 0x02, 0xbe, 0x8b, 0xce, 0x5a, 0xbe,
  0xf4, 0xcf, 0xdb, 0xbe, 0x00, 0x99, 0x85, 0x3c, 0xc0, 0xe9, 0x29, 0x3e,
  0x04, 0x69, 0x66, 0xbe, 0x3b, 0x39, 0x9a, 0xbe, 0xc4, 0xce, 0x7b, 0xbe,
  0xdf, 0x12, 0x7b, 0xbe, 0xb0, 0x17, 0xbb, 0xbd, 0x63, 0x28, 0x88, 0xbe,
  0xfe, 0xcd, 0x5a, 0x3c, 0x5d, 0x64, 0xd9, 0xbe, 0x53, 0x4c, 0x04, 0xbf,
  0xe3, 0x58, 0xec, 0x3d, 0xe1, 0x50, 0x90, 0xbd, 0x9d, 0xa5, 0xb8, 0xbe,
  0xcd, 0x70, 0x45, 0xbd, 0x32, 0x45, 0x11, 0xbe, 0xec, 0x8d, 0x33, 0xbe,
  0x06, 0x17, 0xfc, 0x3e, 0x46, 0xf4, 0xc9, 0xbe, 0xe1, 0x13, 0xea, 0xbd,
  0x0c, 0xc7, 0x1d, 0x3e, 0x80, 0x88, 0x1e, 0x3e, 0x6a, 0x87, 0x42, 0x3e,
  0x6b, 0xc8, 0xb4, 0xbe, 0xb0, 0x3d, 0xe8, 0x3a, 0x6f, 0x30, 0xb2, 0x3d,
  0x94, 0x4d, 0x39, 0xbd, 0x47, 0x1f, 0x9f, 0x3d, 0x82, 0x99, 0x02, 0xbd,
  0xbd, 0x64, 0x41, 0x3e, 0x70, 0xa7, 0x4a, 0xbd, 0x7d, 0xc2, 0xf3, 0x3d,
  0x01, 0xe5, 0x4a, 0xbb, 0x69, 0x9b, 0xda, 0x3c, 0xc5, 0x03, 0xab, 0xbe,
  0x5a, 0x49, 0x21, 0xbd, 0x4c, 0x5c, 0x05, 0x3e, 0x61, 0x25, 0xd5, 0xbb,
  0x2e, 0xd3, 0xd3, 0x3d, 0x60, 0x3c, 0x88, 0xbe, 0xa3, 0xb4, 0xf5, 0xbd,
  0x6d, 0x15, 0x16, 0xbd, 0xad, 0x05, 0x0a, 0x3e, 0x1b, 0xf8, 0xad, 0x3d,
  0x31, 0xd9, 0x81, 0x3d, 0x3e, 0xfb, 0x94, 0x3e, 0xc8, 0x20, 0xe1, 0x3d,
  0x25, 0x60, 0x85, 0x3d, 0xe0, 0x5a, 0x23, 0xbd, 0xfc, 0x2c, 0xdb, 0x3c,
  0xe5, 0x7b, 0x31, 0xbe, 0x5b, 0xd3, 0x9f, 0x3d, 0x83, 0x75, 0x5c, 0xbd,
  0x72, 0xb9, 0x29, 0xbe, 0x25, 0xec, 0xad, 0x3d, 0x9c, 0xbb, 0x48, 0xbd,
  0x71, 0x2b, 0x8e, 0xbd, 0x40, 0x36, 0x64, 0x3d, 0x79, 0x0f, 0xff, 0x3d,
  0x60, 0x31, 0x41, 0x3c, 0xaf, 0xb8, 0xa4, 0xbb, 0xbe, 0x2c, 0xfd, 0x3d,
  0x7d, 0xdc, 0x61, 0x3e, 0x31, 0xdc, 0x18, 0x3e, 0x4a, 0xfe, 0xff, 0xff,
  0x10, 0x00, 0x00, 0x00, 0x05, 0x00, 0x00, 0x00, 0x14, 0x00, 0x00, 0x00,
  0x2c, 0x00, 0x00, 0x00, 0x02, 0x00, 0x00, 0x00, 0x10, 0x00, 0x00, 0x00,
  0x70, 0x00, 0x00, 0x00, 0x17, 0x00, 0x00, 0x00, 0x73, 0x65, 0x71, 0x75,
  0x65, 0x6e, 0x74, 0x69, 0x61, 0x6c, 0x2f, 0x64, 0x65, 0x6e, 0x73, 0x65,
  0x2f, 0x4d, 0x61, 0x74, 0x4d, 0x75, 0x6c, 0x00, 0x38, 0xfe, 0xff, 0xff,
  0x2e, 0xff, 0xff, 0xff, 0x04, 0x00, 0x00, 0x00, 0x08, 0x00, 0x00, 0x00,
  0xff, 0xff, 0xff, 0xff, 0x70, 0x00, 0x00, 0x00, 0x00, 0x00, 0x0e, 0x00,
  0x18, 0x00, 0x08, 0x00, 0x07, 0x00, 0x0c, 0x00, 0x10, 0x00, 0x14, 0x00,
  0x0e, 0x00, 0x00, 0x00, 0x00, 0x00, 0x00, 0x02, 0x10, 0x00, 0x00, 0x00,
  0x04, 0x00, 0x00, 0x00, 0x10, 0x00, 0x00, 0x00, 0x2c, 0x00, 0x00, 0x00,
  0x01, 0x00, 0x00, 0x00, 0x02, 0x00, 0x00, 0x00, 0x18, 0x00, 0x00, 0x00,
  0x73, 0x65, 0x71, 0x75, 0x65, 0x6e, 0x74, 0x69, 0x61, 0x6c, 0x2f, 0x66,
  0x6c, 0x61, 0x74, 0x74, 0x65, 0x6e, 0x2f, 0x43, 0x6f, 0x6e, 0x73, 0x74,
  0x00, 0x00, 0x00, 0x00, 0xa0, 0xfe, 0xff, 0xff, 0x96, 0xff, 0xff, 0xff,
  0x04, 0x00, 0x00, 0x00, 0x0c, 0x00, 0x00, 0x00, 0x05, 0x43, 0x63, 0xbf,
  0x99, 0x85, 0x35, 0xc0, 0x81, 0xf0, 0x1d, 0x40, 0x0a, 0xff, 0xff, 0xff,
  0x10, 0x00, 0x00, 0x00, 0x03, 0x00, 0x00, 0x00, 0x10, 0x00, 0x00, 0x00,
  0x3c, 0x00, 0x00, 0x00, 0x01, 0x00, 0x00, 0x00, 0x03, 0x00, 0x00, 0x00,
  0x29, 0x00, 0x00, 0x00, 0x73, 0x65, 0x71, 0x75, 0x65, 0x6e, 0x74, 0x69,
  0x61, 0x6c, 0x2f, 0x64, 0x65, 0x6e, 0x73, 0x65, 0x5f, 0x31, 0x2f, 0x42,
  0x69, 0x61, 0x73, 0x41, 0x64, 0x64, 0x2f, 0x52, 0x65, 0x61, 0x64, 0x56,
  0x61, 0x72, 0x69, 0x61, 0x62, 0x6c, 0x65, 0x4f, 0x70, 0x00, 0x00, 0x00,
  0x60, 0xff, 0xff, 0xff, 0x00, 0x00, 0x06, 0x00, 0x08, 0x00, 0x04, 0x00,
  0x06, 0x00, 0x00, 0x00, 0x04, 0x00, 0x00, 0x00, 0x40, 0x00, 0x00, 0x00,
  0x1e, 0xf0, 0xe9, 0xbd, 0x84, 0x5a, 0xf8, 0x3c, 0x60, 0xcc, 0xce, 0xbf,
  0xf8, 0x07, 0xa8, 0x3f, 0xb9, 0x48, 0x3d, 0x40, 0x51, 0xb0, 0xa5, 0xbe,
  0x98, 0xc7, 0x66, 0x3f, 0xcb, 0xec, 0x48, 0x3f, 0x80, 0x0f, 0x9d, 0xbf,
  0x5b, 0x65, 0xbf, 0x3f, 0x14, 0x3e, 0x21, 0xbf, 0x02, 0xa2, 0x97, 0xbf,
  0x14, 0x7a, 0xd1, 0x3f, 0xb5, 0x36, 0xab, 0x3e, 0xcf, 0xe1, 0x8c, 0xbe,
  0xa3, 0x4a, 0x3b, 0xbf, 0xae, 0xff, 0xff, 0xff, 0x10, 0x00, 0x00, 0x00,
  0x02, 0x00, 0x00, 0x00, 0x10, 0x00, 0x00, 0x00, 0x3c, 0x00, 0x00, 0x00,
  0x01, 0x00, 0x00, 0x00, 0x10, 0x00, 0x00, 0x00, 0x27, 0x00, 0x00, 0x00,
  0x73, 0x65, 0x71, 0x75, 0x65, 0x6e, 0x74, 0x69, 0x61, 0x6c, 0x2f, 0x64,
  0x65, 0x6e, 0x73, 0x65, 0x2f, 0x42, 0x69, 0x61, 0x73, 0x41, 0x64, 0x64,
  0x2f, 0x52, 0x65, 0x61, 0x64, 0x56, 0x61, 0x72, 0x69, 0x61, 0x62, 0x6c,
  0x65, 0x4f, 0x70, 0x00, 0x04, 0x00, 0x06, 0x00, 0x04, 0x00, 0x00, 0x00,
  0x00, 0x00, 0x0e, 0x00, 0x14, 0x00, 0x04, 0x00, 0x00, 0x00, 0x08, 0x00,
  0x0c, 0x00, 0x10, 0x00, 0x0e, 0x00, 0x00, 0x00, 0x10, 0x00, 0x00, 0x00,
  0x01, 0x00, 0x00, 0x00, 0x1c, 0x00, 0x00, 0x00, 0x2c, 0x00, 0x00, 0x00,
  0x04, 0x00, 0x00, 0x00, 0x01, 0x00, 0x00, 0x00, 0x40, 0x00, 0x00, 0x00,
  0x03, 0x00, 0x00, 0x00, 0x01, 0x00, 0x00, 0x00, 0x0c, 0x00, 0x00, 0x00,
  0x63, 0x6f, 0x6e, 0x76, 0x32, 0x64, 0x5f, 0x69, 0x6e, 0x70, 0x75, 0x74,
  0x00, 0x00, 0x00, 0x00, 0xfc, 0xff, 0xff, 0xff, 0x04, 0x00, 0x04, 0x00,
  0x04, 0x00, 0x00, 0x00

};

unsigned int model_tflite_len =12316 ;// Fill the int in `src/model.cc` here